#include "magic_wand_model_data.h"

// We need to keep the data array aligned on some architectures.
#ifdef __has_attribute
#define HAVE_ATTRIBUTE(x) __has_attribute(x)
#else
#define HAVE_ATTRIBUTE(x) 0
#endif
#if HAVE_ATTRIBUTE(aligned) || (defined(__GNUC__) && !defined(__clang__))
#define DATA_ALIGN_ATTRIBUTE __attribute__((aligned(4)))
#else
#define DATA_ALIGN_ATTRIBUTE
#endif

const unsigned char g_magic_wand_model_data[] DATA_ALIGN_ATTRIBUTE = {
 0x08, 0x00, 0x00, 0x00, 0x54, 0x46, 0x4c, 0x33, 0x62, 0xff, 0xff, 0xff,
  0x03, 0x00, 0x00, 0x00, 0x10, 0x00, 0x00, 0x00, 0x24, 0x00, 0x00, 0x00,
  0x78, 0x00, 0x00, 0x00, 0x24, 0x00, 0x00, 0x00, 0x05, 0x00, 0x00, 0x00,
  0x78, 0x05, 0x00, 0x00, 0xb0, 0x04, 0x00, 0x00, 0xe0, 0x02, 0x00, 0x00,
  0x60, 0x02, 0x00, 0x00, 0x54, 0x01, 0x00, 0x00, 0x01, 0x00, 0x00, 0x00,
  0x78, 0x00, 0x00, 0x00, 0x13, 0x00, 0x00, 0x00, 0xd4, 0x2f, 0x00, 0x00,
  0xd0, 0x2f, 0x00, 0x00, 0xdc, 0x2e, 0x00, 0x00, 0x68, 0x2e, 0x00, 0x00,
  0xfc, 0x2d, 0x00, 0x00, 0xac, 0x11, 0x00, 0x00, 0x98, 0x10, 0x00, 0x00,
  0xbc, 0x0e, 0x00, 0x00, 0x60, 0x06, 0x00, 0x00, 0xfc, 0x05, 0x00, 0x00,
  0x78, 0x05, 0x00, 0x00, 0xa8, 0x2f, 0x00, 0x00, 0xa4, 0x2f, 0x00, 0x00,
  0xa0, 0x2f, 0x00, 0x00, 0x9c, 0x2f, 0x00, 0x00, 0x98, 0x2f, 0x00, 0x00,
  0x94, 0x2f, 0x00, 0x00, 0x90, 0x2f, 0x00, 0x00, 0x8c, 0x2f, 0x00, 0x00,
  0x0f, 0x00, 0x00, 0x00, 0x4d, 0x4c, 0x49, 0x52, 0x20, 0x43, 0x6f, 0x6e,
  0x76, 0x65, 0x72, 0x74, 0x65, 0x64, 0x2e, 0x00, 0x00, 0x00, 0x0e, 0x00,
  0x18, 0x00, 0x04, 0x00, 0x08, 0x00, 0x0c, 0x00, 0x10, 0x00, 0x14, 0x00,
  0x0e, 0x00, 0x00, 0x00, 0x14, 0x00, 0x00, 0x00, 0x5c, 0x00, 0x00, 0x00,
  0x60, 0x00, 0x00, 0x00, 0x64, 0x00, 0x00, 0x00, 0x84, 0x00, 0x00, 0x00,
  0x12, 0x00, 0x00, 0x00, 0x04, 0x2f, 0x00, 0x00, 0xa0, 0x2e, 0x00, 0x00,
  0xf8, 0x2d, 0x00, 0x00, 0x98, 0x2d, 0x00, 0x00, 0x30, 0x2d, 0x00, 0x00,
  0xdc, 0x10, 0x00, 0x00, 0xc0, 0x0f, 0x00, 0x00, 0xe4, 0x0d, 0x00, 0x00,
  0xa0, 0x05, 0x00, 0x00, 0x3c, 0x05, 0x00, 0x00, 0xb0, 0x04, 0x00, 0x00,
  0xe8, 0x03, 0x00, 0x00, 0x38, 0x03, 0x00, 0x00, 0xa4, 0x02, 0x00, 0x00,
  0x10, 0x02, 0x00, 0x00, 0x90, 0x01, 0x00, 0x00, 0xfc, 0x00, 0x00, 0x00,
  0x80, 0x00, 0x00, 0x00, 0x01, 0x00, 0x00, 0x00, 0x00, 0x00, 0x00, 0x00,
  0x01, 0x00, 0x00, 0x00, 0x11, 0x00, 0x00, 0x00, 0x08, 0x00, 0x00, 0x00,
  0x1c, 0x04, 0x00, 0x00, 0x58, 0x03, 0x00, 0x00, 0xc8, 0x02, 0x00, 0x00,
  0x24, 0x02, 0x00, 0x00, 0xac, 0x01, 0x00, 0x00, 0x10, 0x01, 0x00, 0x00,
  0x94, 0x00, 0x00, 0x00, 0x10, 0x00, 0x00, 0x00, 0x04, 0x00, 0x00, 0x00,
  0x6d, 0x61, 0x69, 0x6e, 0x00, 0x00, 0x00, 0x00, 0x8e, 0xff, 0xff, 0xff,
  0x00, 0x00, 0x00, 0x09, 0x04, 0x00, 0x00, 0x00, 0x1c, 0x00, 0x00, 0x00,
  0x10, 0x00, 0x00, 0x00, 0x04, 0x00, 0x00, 0x00, 0x4e, 0xd2, 0xff, 0xff,
  0x00, 0x00, 0x80, 0x3f, 0x01, 0x00, 0x00, 0x00, 0x11, 0x00, 0x00, 0x00,
  0x01, 0x00, 0x00, 0x00, 0x10, 0x00, 0x00, 0x00, 0xf6, 0xfb, 0xff, 0xff,
  0x00, 0x00, 0x00, 0x19, 0x01, 0x00, 0x00, 0x00, 0xce, 0xd1, 0xff, 0xff,
  0x10, 0x00, 0x00, 0x00, 0x12, 0x00, 0x00, 0x00, 0x14, 0x00, 0x00, 0x00,
  0x20, 0x00, 0x00, 0x00, 0x02, 0x00, 0x00, 0x00, 0x01, 0x00, 0x00, 0x00,
  0x03, 0x00, 0x00, 0x00, 0x08, 0x00, 0x00, 0x00, 0x49, 0x64, 0x65, 0x6e,
  0x74, 0x69, 0x74, 0x79, 0x00, 0x00, 0x00, 0x00, 0x08, 0xd2, 0xff, 0xff,
  0x00, 0x00, 0x0e, 0x00, 0x18, 0x00, 0x08, 0x00, 0x0c, 0x00, 0x10, 0x00,
  0x07, 0x00, 0x14, 0x00, 0x0e, 0x00, 0x00, 0x00, 0x00, 0x00, 0x00, 0x08,
  0x03, 0x00, 0x00, 0x00, 0x18, 0x00, 0x00, 0x00, 0x0c, 0x00, 0x00, 0x00,
  0x04, 0x00, 0x00, 0x00, 0xdc, 0xd1, 0xff, 0xff, 0x01, 0x00, 0x00, 0x00,
  0x10, 0x00, 0x00, 0x00, 0x03, 0x00, 0x00, 0x00, 0x0f, 0x00, 0x00, 0x00,
  0x05, 0x00, 0x00, 0x00, 0x02, 0x00, 0x00, 0x00, 0x46, 0xd2, 0xff, 0xff,
  0x10, 0x00, 0x00, 0x00, 0x11, 0x00, 0x00, 0x00, 0x14, 0x00, 0x00, 0x00,
  0x30, 0x00, 0x00, 0x00, 0x02, 0x00, 0x00, 0x00, 0x01, 0x00, 0x00, 0x00,
  0x03, 0x00, 0x00, 0x00, 0x1a, 0x00, 0x00, 0x00, 0x73, 0x65, 0x71, 0x75,
  0x65, 0x6e, 0x74, 0x69, 0x61, 0x6c, 0x2f, 0x64, 0x65, 0x6e, 0x73, 0x65,
  0x5f, 0x31, 0x2f, 0x42, 0x69, 0x61, 0x73, 0x41, 0x64, 0x64, 0x00, 0x00,
  0x38, 0xd2, 0xff, 0xff, 0xd6, 0xfd, 0xff, 0xff, 0x00, 0x00, 0x00, 0x08,
  0x03, 0x00, 0x00, 0x00, 0x24, 0x00, 0x00, 0x00, 0x18, 0x00, 0x00, 0x00,
  0x0c, 0x00, 0x00, 0x00, 0x00, 0x00, 0x06, 0x00, 0x08, 0x00, 0x07, 0x00,
  0x06, 0x00, 0x00, 0x00, 0x00, 0x00, 0x00, 0x01, 0x01, 0x00, 0x00, 0x00,
  0x0f, 0x00, 0x00, 0x00, 0x03, 0x00, 0x00, 0x00, 0x0e, 0x00, 0x00, 0x00,
  0x04, 0x00, 0x00, 0x00, 0x01, 0x00, 0x00, 0x00, 0xfe, 0xfc, 0xff, 0xff,
  0x00, 0x00, 0x00, 0x09, 0x01, 0x00, 0x00, 0x00, 0xd6, 0xd2, 0xff, 0xff,
  0x10, 0x00, 0x00, 0x00, 0x10, 0x00, 0x00, 0x00, 0x14, 0x00, 0x00, 0x00,
  0x2c, 0x00, 0x00, 0x00, 0x02, 0x00, 0x00, 0x00, 0x01, 0x00, 0x00, 0x00,
  0x10, 0x00, 0x00, 0x00, 0x15, 0x00, 0x00, 0x00, 0x73, 0x65, 0x71, 0x75,
  0x65, 0x6e, 0x74, 0x69, 0x61, 0x6c, 0x2f, 0x64, 0x65, 0x6e, 0x73, 0x65,
  0x2f, 0x52, 0x65, 0x6c, 0x75, 0x00, 0x00, 0x00, 0x1c, 0xd3, 0xff, 0xff,
  0x00, 0x00, 0x0a, 0x00, 0x10, 0x00, 0x04, 0x00, 0x08, 0x00, 0x0c, 0x00,
  0x0a, 0x00, 0x00, 0x00, 0x02, 0x00, 0x00, 0x00, 0x10, 0x00, 0x00, 0x00,
  0x04, 0x00, 0x00, 0x00, 0x01, 0x00, 0x00, 0x00, 0x0e, 0x00, 0x00, 0x00,
  0x02, 0x00, 0x00, 0x00, 0x0d, 0x00, 0x00, 0x00, 0x03, 0x00, 0x00, 0x00,
  0x7a, 0xfd, 0xff, 0xff, 0x00, 0x00, 0x00, 0x16, 0x01, 0x00, 0x00, 0x00,
  0x52, 0xd3, 0xff, 0xff, 0x10, 0x00, 0x00, 0x00, 0x0f, 0x00, 0x00, 0x00,
  0x14, 0x00, 0x00, 0x00, 0x30, 0x00, 0x00, 0x00, 0x02, 0x00, 0x00, 0x00,
  0x01, 0x00, 0x00, 0x00, 0x70, 0x00, 0x00, 0x00, 0x1a, 0x00, 0x00, 0x00,
  0x73, 0x65, 0x71, 0x75, 0x65, 0x6e, 0x74, 0x69, 0x61, 0x6c, 0x2f, 0x66,
  0x6c, 0x61, 0x74, 0x74, 0x65, 0x6e, 0x2f, 0x52, 0x65, 0x73, 0x68, 0x61,
  0x70, 0x65, 0x00, 0x00, 0x44, 0xd3, 0xff, 0xff, 0xe2, 0xfe, 0xff, 0xff,
  0x00, 0x00, 0x00, 0x05, 0x01, 0x00, 0x00, 0x00, 0x38, 0x00, 0x00, 0x00,
  0x2c, 0x00, 0x00, 0x00, 0x14, 0x00, 0x00, 0x00, 0x00, 0x00, 0x0e, 0x00,
  0x14, 0x00, 0x00, 0x00, 0x10, 0x00, 0x0c, 0x00, 0x08, 0x00, 0x04, 0x00,
  0x0e, 0x00, 0x00, 0x00, 0x03, 0x00, 0x00, 0x00, 0x01, 0x00, 0x00, 0x00,
  0x03, 0x00, 0x00, 0x00, 0x01, 0x00, 0x00, 0x00, 0x01, 0x00, 0x00, 0x00,
  0x0d, 0x00, 0x00, 0x00, 0x01, 0x00, 0x00, 0x00, 0x0c, 0x00, 0x00, 0x00,
  0xe2, 0xd3, 0xff, 0xff, 0x10, 0x00, 0x00, 0x00, 0x0e, 0x00, 0x00, 0x00,
  0x1c, 0x00, 0x00, 0x00, 0x40, 0x00, 0x00, 0x00, 0x04, 0x00, 0x00, 0x00,
  0x01, 0x00, 0x00, 0x00, 0x07, 0x00, 0x00, 0x00, 0x01, 0x00, 0x00, 0x00,
  0x10, 0x00, 0x00, 0x00, 0x22, 0x00, 0x00, 0x00, 0x73, 0x65, 0x71, 0x75,
  0x65, 0x6e, 0x74, 0x69, 0x61, 0x6c, 0x2f, 0x6d, 0x61, 0x78, 0x5f, 0x70,
  0x6f, 0x6f, 0x6c, 0x69, 0x6e, 0x67, 0x32, 0x64, 0x5f, 0x31, 0x2f, 0x4d,
  0x61, 0x78, 0x50, 0x6f, 0x6f, 0x6c, 0x00, 0x00, 0xe4, 0xd3, 0xff, 0xff,
  0xc2, 0xfe, 0xff, 0xff, 0x00, 0x00, 0x00, 0x01, 0x24, 0x00, 0x00, 0x00,
  0x18, 0x00, 0x00, 0x00, 0x04, 0x00, 0x00, 0x00, 0xb4, 0xfe, 0xff, 0xff,
  0x01, 0x00, 0x00, 0x00, 0x01, 0x00, 0x00, 0x00, 0x00, 0x00, 0x00, 0x01,
  0x01, 0x00, 0x00, 0x00, 0x0c, 0x00, 0x00, 0x00, 0x03, 0x00, 0x00, 0x00,
  0x0b, 0x00, 0x00, 0x00, 0x07, 0x00, 0x00, 0x00, 0x09, 0x00, 0x00, 0x00,
  0x72, 0xd4, 0xff, 0xff, 0x10, 0x00, 0x00, 0x00, 0x0d, 0x00, 0x00, 0x00,
  0x1c, 0x00, 0x00, 0x00, 0x2c, 0x00, 0x00, 0x00, 0x04, 0x00, 0x00, 0x00,
  0x01, 0x00, 0x00, 0x00, 0x15, 0x00, 0x00, 0x00, 0x01, 0x00, 0x00, 0x00,
  0x10, 0x00, 0x00, 0x00, 0x0c, 0x00, 0x00, 0x00, 0x74, 0x66, 0x6c, 0x2e,
  0x63, 0x6f, 0x6e, 0x76, 0x5f, 0x32, 0x64, 0x31, 0x00, 0x00, 0x00, 0x00,
  0xb8, 0xd4, 0xff, 0xff, 0x00, 0x00, 0x0e, 0x00, 0x1a, 0x00, 0x08, 0x00,
  0x0c, 0x00, 0x10, 0x00, 0x07, 0x00, 0x14, 0x00, 0x0e, 0x00, 0x00, 0x00,
  0x00, 0x00, 0x00, 0x05, 0x01, 0x00, 0x00, 0x00, 0x3c, 0x00, 0x00, 0x00,
  0x30, 0x00, 0x00, 0x00, 0x14, 0x00, 0x00, 0x00, 0x00, 0x00, 0x0e, 0x00,
  0x18, 0x00, 0x17, 0x00, 0x10, 0x00, 0x0c, 0x00, 0x08, 0x00, 0x04, 0x00,
  0x0e, 0x00, 0x00, 0x00, 0x03, 0x00, 0x00, 0x00, 0x03, 0x00, 0x00, 0x00,
  0x03, 0x00, 0x00, 0x00, 0x03, 0x00, 0x00, 0x00, 0x00, 0x00, 0x00, 0x01,
  0x01, 0x00, 0x00, 0x00, 0x0b, 0x00, 0x00, 0x00, 0x01, 0x00, 0x00, 0x00,
  0x0a, 0x00, 0x00, 0x00, 0x46, 0xff, 0xff, 0xff, 0x00, 0x00, 0x00, 0x11,
  0x01, 0x00, 0x00, 0x00, 0x1e, 0xd5, 0xff, 0xff, 0x10, 0x00, 0x00, 0x00,
  0x0c, 0x00, 0x00, 0x00, 0x1c, 0x00, 0x00, 0x00, 0x40, 0x00, 0x00, 0x00,
  0x04, 0x00, 0x00, 0x00, 0x01, 0x00, 0x00, 0x00, 0x15, 0x00, 0x00, 0x00,
  0x01, 0x00, 0x00, 0x00, 0x08, 0x00, 0x00, 0x00, 0x20, 0x00, 0x00, 0x00,
  0x73, 0x65, 0x71, 0x75, 0x65, 0x6e, 0x74, 0x69, 0x61, 0x6c, 0x2f, 0x6d,
  0x61, 0x78, 0x5f, 0x70, 0x6f, 0x6f, 0x6c, 0x69, 0x6e, 0x67, 0x32, 0x64,
  0x2f, 0x4d, 0x61, 0x78, 0x50, 0x6f, 0x6f, 0x6c, 0x00, 0x00, 0x00, 0x00,
  0x78, 0xd5, 0xff, 0xff, 0x00, 0x00, 0x0e, 0x00, 0x14, 0x00, 0x00, 0x00,
  0x08, 0x00, 0x0c, 0x00, 0x07, 0x00, 0x10, 0x00, 0x0e, 0x00, 0x00, 0x00,
  0x00, 0x00, 0x00, 0x01, 0x30, 0x00, 0x00, 0x00, 0x24, 0x00, 0x00, 0x00,
  0x10, 0x00, 0x00, 0x00, 0x0c, 0x00, 0x10, 0x00, 0x00, 0x00, 0x04, 0x00,
  0x08, 0x00, 0x0f, 0x00, 0x0c, 0x00, 0x00, 0x00, 0x01, 0x00, 0x00, 0x00,
  0x01, 0x00, 0x00, 0x00, 0x00, 0x00, 0x00, 0x01, 0x01, 0x00, 0x00, 0x00,
  0x0a, 0x00, 0x00, 0x00, 0x03, 0x00, 0x00, 0x00, 0x00, 0x00, 0x00, 0x00,
  0x06, 0x00, 0x00, 0x00, 0x08, 0x00, 0x00, 0x00, 0x00, 0x00, 0x0a, 0x00,
  0x0c, 0x00, 0x07, 0x00, 0x00, 0x00, 0x08, 0x00, 0x0a, 0x00, 0x00, 0x00,
  0x00, 0x00, 0x00, 0x03, 0x01, 0x00, 0x00, 0x00, 0xe2, 0xd5, 0xff, 0xff,
  0x10, 0x00, 0x00, 0x00, 0x0b, 0x00, 0x00, 0x00, 0x1c, 0x00, 0x00, 0x00,
  0x28, 0x00, 0x00, 0x00, 0x04, 0x00, 0x00, 0x00, 0x01, 0x00, 0x00, 0x00,
  0x40, 0x00, 0x00, 0x00, 0x03, 0x00, 0x00, 0x00, 0x08, 0x00, 0x00, 0x00,
  0x0b, 0x00, 0x00, 0x00, 0x74, 0x66, 0x6c, 0x2e, 0x63, 0x6f, 0x6e, 0x76,
  0x5f, 0x32, 0x64, 0x00, 0xcc, 0xd5, 0xff, 0xff, 0xc2, 0xd6, 0xff, 0xff,
  0x04, 0x00, 0x00, 0x00, 0x40, 0x00, 0x00, 0x00, 0x2e, 0x59, 0xa4, 0x3f,
  0x95, 0x08, 0x8c, 0xbf, 0x41, 0x19, 0xf7, 0xbc, 0xc6, 0x9e, 0x78, 0xbf,
  0x44, 0x21, 0x80, 0xbf, 0xb1, 0x2a, 0x67, 0xbe, 0xa7, 0x1e, 0x1a, 0x40,
  0x9d, 0x62, 0x89, 0xbf, 0xe6, 0x80, 0xe9, 0xbe, 0xbc, 0x92, 0xc5, 0xbe,
  0x3e, 0x49, 0xaf, 0x3d, 0x80, 0x21, 0x22, 0xbd, 0xaf, 0x11, 0x83, 0xbf,
  0x14, 0x7c, 0x6b, 0xbf, 0xb6, 0x0a, 0x00, 0xbf, 0xd2, 0xbe, 0x7c, 0xbf,
  0x6a, 0xd6, 0xff, 0xff, 0x10, 0x00, 0x00, 0x00, 0x0a, 0x00, 0x00, 0x00,
  0x10, 0x00, 0x00, 0x00, 0x20, 0x00, 0x00, 0x00, 0x01, 0x00, 0x00, 0x00,
  0x10, 0x00, 0x00, 0x00, 0x0d, 0x00, 0x00, 0x00, 0x73, 0x74, 0x64, 0x2e,
  0x63, 0x6f, 0x6e, 0x73, 0x74, 0x61, 0x6e, 0x74, 0x31, 0x00, 0x00, 0x00,
  0x4c, 0xd6, 0xff, 0xff, 0x42, 0xd7, 0xff, 0xff, 0x04, 0x00, 0x00, 0x00,
  0x20, 0x00, 0x00, 0x00, 0xf0, 0xd9, 0x9c, 0xbf, 0xc0, 0xe3, 0xa5, 0xbe,
  0x19, 0x3c, 0x6b, 0xbf, 0xb9, 0x6b, 0xf1, 0xbe, 0x2a, 0x6b, 0x61, 0xbf,
  0xd9, 0x2d, 0x39, 0xbf, 0xde, 0x9e, 0x35, 0xbf, 0xbe, 0x42, 0x9f, 0xbf,
  0xca, 0xd6, 0xff, 0xff, 0x10, 0x00, 0x00, 0x00, 0x09, 0x00, 0x00, 0x00,
  0x10, 0x00, 0x00, 0x00, 0x20, 0x00, 0x00, 0x00, 0x01, 0x00, 0x00, 0x00,
  0x08, 0x00, 0x00, 0x00, 0x0c, 0x00, 0x00, 0x00, 0x73, 0x74, 0x64, 0x2e,
  0x63, 0x6f, 0x6e, 0x73, 0x74, 0x61, 0x6e, 0x74, 0x00, 0x00, 0x00, 0x00,
  0xac, 0xd6, 0xff, 0xff, 0xa2, 0xd7, 0xff, 0xff, 0x04, 0x00, 0x00, 0x00,
  0x00, 0x08, 0x00, 0x00, 0x4e, 0x60, 0x9e, 0xbd, 0x87, 0xa4, 0xb4, 0x3d,
  0xaf, 0x5c, 0xd5, 0xbd, 0x76, 0x93, 0xf2, 0xbc, 0x7d, 0x54, 0x99, 0xbe,
  0xad, 0x8c, 0x1e, 0xbe, 0xa5, 0xbc, 0xa0, 0xbc, 0x9d, 0xb1, 0x6c, 0x3d,
  0xc1, 0x60, 0x61, 0xbe, 0xd5, 0x49, 0xa4, 0xbd, 0xd5, 0xc4, 0x99, 0xbe,
  0xb7, 0x32, 0x0b, 0xbe, 0xfe, 0x80, 0x4c, 0xbc, 0x76, 0xa9, 0xef, 0x3d,
  0xc0, 0xe8, 0xfc, 0xbe, 0xad, 0x41, 0x59, 0xbe, 0x5d, 0xc8, 0x83, 0xbd,
  0x31, 0xb5, 0x8a, 0xbe, 0x87, 0x0c, 0xaa, 0x3d, 0xfd, 0x48, 0x7e, 0xbe,
  0x74, 0x5b, 0x84, 0x3e, 0x8c, 0xc9, 0xd5, 0x3e, 0x9c, 0x8c, 0x3f, 0x3e,
  0x5f, 0xf9, 0x5f, 0xbe, 0xd0, 0xdd, 0xab, 0x3d, 0x2d, 0xbd, 0xdb, 0xbc,
  0x3f, 0x92, 0xce, 0x3d, 0xf8, 0x3e, 0x10, 0x3e, 0x62, 0x4f, 0x99, 0xbd,
  0xb7, 0x50, 0x23, 0xbe, 0xdb, 0xd8, 0x3e, 0x3e, 0x83, 0x7f, 0x6f, 0x3d,
  0x3a, 0x8f, 0x84, 0xbd, 0x5a, 0xa2, 0x8e, 0xbe, 0xb7, 0x2f, 0x14, 0xbe,
  0x07, 0x65, 0x1a, 0xbe, 0xc7, 0x3e, 0xb2, 0xbe, 0x88, 0x30, 0xf3, 0x3e,
  0x76, 0xd2, 0x9c, 0xbe, 0xad, 0xc7, 0xd8, 0xbd, 0x4a, 0xe9, 0xcd, 0x3b,
  0xcc, 0x11, 0x54, 0xbe, 0xed, 0x14, 0xb0, 0x3d, 0x58, 0xd8, 0x38, 0xbe,
  0xa5, 0xfa, 0x32, 0x3f, 0x89, 0xd0, 0x7a, 0xba, 0x72, 0x87, 0x65, 0xbe,
  0x0b, 0x39, 0x64, 0xbe, 0x9a, 0xe7, 0x18, 0x3e, 0xea, 0xf5, 0x23, 0xbe,
  0x75, 0x26, 0x09, 0x3e, 0x6a, 0xad, 0x0c, 0xbe, 0x06, 0x4f, 0x35, 0xbe,
  0xc6, 0x53, 0x9d, 0xbe, 0x2c, 0xdb, 0x0a, 0xbd, 0x8c, 0x2c, 0x53, 0xbe,
  0x64, 0x1e, 0xe2, 0x3d, 0xd3, 0xe8, 0x39, 0x3e, 0xc6, 0x59, 0x37, 0x3d,
  0x3c, 0x5a, 0x3e, 0x3d, 0x64, 0x5c, 0xb9, 0xbe, 0x43, 0x54, 0x3d, 0xbe,
  0x54, 0x74, 0xba, 0xbd, 0xb5, 0xd9, 0xb3, 0x3e, 0x16, 0xf3, 0xcf, 0x3c,
  0x61, 0x3a, 0x3a, 0xbe, 0x27, 0x2b, 0xd4, 0x3d, 0xbf, 0xdc, 0xf2, 0xbd,
  0x29, 0xe9, 0xae, 0x3d, 0x8f, 0x72, 0xb1, 0x3d, 0x8b, 0xdf, 0xc5, 0xbd,
  0xc3, 0x4a, 0xf6, 0x3c, 0xa1, 0xc1, 0xb8, 0x3d, 0x9e, 0x20, 0x45, 0xbd,
  0xd1, 0x9d, 0x61, 0x39, 0x01, 0x08, 0xc6, 0xbc, 0x52, 0xcb, 0xbe, 0xbd,
  0xf3, 0xde, 0x30, 0xbe, 0xed, 0x2d, 0xe2, 0x3d, 0x0f, 0x59, 0x65, 0xbd,
  0x3c, 0x04, 0x8a, 0xbd, 0xb4, 0xc5, 0x07, 0xbe, 0x12, 0xd8, 0xa3, 0x3e,
  0x74, 0xeb, 0xde, 0x3c, 0x44, 0xea, 0x86, 0xbd, 0x77, 0xae, 0x12, 0xbc,
  0x22, 0x10, 0xf7, 0x3d, 0xba, 0x09, 0x0f, 0xbd, 0x49, 0x79, 0x18, 0x3e,
  0x16, 0xdf, 0x86, 0x3d, 0xab, 0x14, 0xb3, 0xbd, 0x6b, 0x83, 0xac, 0x3c,
  0x39, 0x93, 0xb4, 0x3d, 0xfd, 0x18, 0x07, 0x3e, 0x85, 0x58, 0x46, 0x3e,
  0x6c, 0x0d, 0x1f, 0xbd, 0x51, 0x4d, 0x73, 0xbe, 0xd5, 0x98, 0x22, 0xbe,
  0xdd, 0xa1, 0x97, 0xbe, 0x1b, 0x14, 0x35, 0xbe, 0x2c, 0x52, 0x25, 0x3e,
  0xe9, 0x0d, 0xde, 0x3d, 0x89, 0x07, 0x9e, 0xbc, 0xf9, 0xee, 0x5f, 0xbe,
  0xc3, 0x02, 0xac, 0xbe, 0xfc, 0xca, 0x4c, 0xbe, 0x5a, 0x50, 0xe3, 0xbc,
  0xab, 0x71, 0xad, 0xbe, 0x7b, 0x17, 0x3c, 0xbe, 0x0d, 0xfe, 0x56, 0x3e,
  0x20, 0xb7, 0xd2, 0x3d, 0xd8, 0x91, 0xf1, 0xbd, 0xa5, 0x86, 0xc1, 0x3e,
  0xec, 0xe4, 0xae, 0xbd, 0x70, 0x6d, 0x8e, 0x3e, 0xde, 0xea, 0xf7, 0xbc,
  0x82, 0x84, 0x21, 0xbe, 0xcf, 0x12, 0x5d, 0xbe, 0x9f, 0x3e, 0xc5, 0x3d,
  0x01, 0xd5, 0x44, 0xbe, 0xb1, 0x66, 0x90, 0xbb, 0xea, 0x7a, 0x28, 0x3e,
  0x1f, 0x7d, 0x52, 0x3d, 0x56, 0x51, 0x89, 0x3e, 0x57, 0xfe, 0x49, 0x3d,
  0x08, 0x6d, 0x6b, 0xbe, 0x25, 0xca, 0x9e, 0x3d, 0x7c, 0xbb, 0x96, 0x3e,
  0xcf, 0x44, 0xc6, 0xbe, 0xda, 0xd8, 0x6b, 0xbe, 0x21, 0x2b, 0x30, 0xbe,
  0x9d, 0x16, 0x55, 0xbe, 0xe3, 0x5e, 0xf5, 0x3e, 0x65, 0x10, 0x0a, 0x3d,
  0x38, 0x73, 0x0e, 0xbf, 0x2d, 0xdd, 0xa4, 0xbe, 0xba, 0xd7, 0x89, 0xbe,
  0x2c, 0xbb, 0x9d, 0xbe, 0xf7, 0x18, 0x15, 0xbe, 0x35, 0xff, 0xc5, 0xbe,
  0x70, 0xf8, 0x35, 0xbd, 0x48, 0x9a, 0x54, 0x3e, 0xbb, 0xdc, 0x67, 0xbe,
  0x1d, 0x5e, 0x02, 0xbf, 0xbb, 0xd4, 0x19, 0x3e, 0x55, 0xf0, 0x75, 0xbe,
  0x4f, 0xf1, 0xc0, 0x3e, 0x6f, 0xef, 0x35, 0xbc, 0x12, 0x47, 0xb2, 0xbe,
  0x27, 0x1d, 0xb1, 0xbe, 0x16, 0xe4, 0x91, 0x3d, 0x79, 0x99, 0x07, 0xbe,
  0x02, 0x13, 0x35, 0x3d, 0x29, 0x02, 0x58, 0x3e, 0x2a, 0x87, 0x1a, 0x3d,
  0x8b, 0xee, 0x8e, 0x3e, 0x66, 0x4f, 0x3d, 0xbe, 0x5d, 0xb3, 0x8e, 0xbe,
  0x97, 0x21, 0x21, 0x3e, 0xae, 0xbb, 0x9c, 0x3d, 0x2a, 0xb7, 0x14, 0xbe,
  0xb7, 0x7e, 0x5e, 0xbe, 0x76, 0x4f, 0x50, 0xbe, 0x96, 0x62, 0x8e, 0xbe,
  0x68, 0xe9, 0x5d, 0xbe, 0xec, 0xf8, 0x10, 0xbe, 0x5b, 0x3b, 0xf4, 0x3d,
  0x29, 0xe3, 0xdb, 0xbd, 0xa2, 0xc3, 0xa5, 0x3d, 0x6b, 0xe3, 0x27, 0xbc,
  0x1f, 0xc8, 0xa5, 0xbe, 0x20, 0x8f, 0x52, 0xbd, 0xe9, 0x32, 0x93, 0xbd,
  0xd7, 0x02, 0x2d, 0xbe, 0xdd, 0x47, 0x68, 0x3c, 0xa5, 0x38, 0x07, 0x3e,
  0x5f, 0x95, 0x5f, 0xbe, 0x31, 0x21, 0x10, 0xbe, 0x26, 0xa2, 0x66, 0xbd,
  0xf1, 0x0f, 0x60, 0x3e, 0x34, 0x3b, 0x72, 0xbc, 0xbc, 0xd6, 0xb3, 0x3d,
  0xb2, 0xd3, 0xdb, 0x3d, 0xac, 0x64, 0x93, 0x3b, 0x46, 0xc2, 0x8b, 0xbe,
  0xea, 0xf8, 0x03, 0x3e, 0x63, 0xc8, 0x4a, 0x3d, 0x0d, 0xfb, 0x74, 0x3d,
  0x57, 0x98, 0x54, 0x3e, 0xf2, 0x37, 0x78, 0x3e, 0xe9, 0x55, 0xea, 0xbe,
  0xd7, 0x8f, 0xe6, 0xbb, 0x95, 0xf7, 0x85, 0xbe, 0x95, 0xcd, 0xf0, 0xbe,
  0xb1, 0x64, 0xea, 0xbe, 0x48, 0xff, 0xa0, 0xbe, 0x2c, 0x6e, 0x67, 0xbe,
  0xfb, 0x01, 0x8c, 0xbe, 0xc9, 0xed, 0x2d, 0xbe, 0xee, 0xfc, 0x85, 0xbe,
  0x85, 0x56, 0x94, 0xbd, 0x10, 0x66, 0xa6, 0x3c, 0x58, 0x96, 0x6f, 0x3e,
  0x2f, 0x4a, 0xa5, 0xbb, 0x5b, 0x13, 0xfc, 0xbc, 0x49, 0x65, 0x35, 0x3d,
  0x66, 0x22, 0x56, 0xbe, 0x79, 0x80, 0xae, 0x3e, 0xbd, 0xf4, 0xc8, 0xbc,
  0x92, 0xe5, 0x3b, 0x3c, 0x2d, 0x44, 0x1b, 0xbe, 0x36, 0xf8, 0xd3, 0x3d,
  0xa4, 0xb3, 0xf5, 0xbc, 0xc6, 0x74, 0x3e, 0xbe, 0x69, 0xd2, 0x2f, 0xbe,
  0x55, 0xaf, 0x7e, 0xbd, 0xa8, 0x68, 0x99, 0x3e, 0x47, 0x32, 0x76, 0xbe,
  0x65, 0x27, 0x54, 0xbe, 0x56, 0x95, 0x33, 0xbd, 0x9b, 0x07, 0x17, 0xbe,
  0xad, 0xd8, 0xb9, 0xbd, 0x81, 0x6f, 0x7e, 0xbd, 0x0c, 0x9f, 0xf5, 0xbd,
  0x62, 0xc6, 0x80, 0xbe, 0x28, 0xb0, 0xff, 0xbd, 0x63, 0x58, 0x82, 0x3d,
  0x66, 0x4e, 0x64, 0xbe, 0xd8, 0xfd, 0xc9, 0x3e, 0x3b, 0xd6, 0x26, 0xbd,
  0x0e, 0xe4, 0xc5, 0xbe, 0x63, 0x13, 0x9c, 0xbe, 0xd8, 0x94, 0x20, 0xbe,
  0xe6, 0xe6, 0x93, 0xbd, 0xe7, 0x42, 0x92, 0xbd, 0xcf, 0x98, 0x99, 0xbd,
  0x51, 0x8d, 0x38, 0x3b, 0x16, 0xb9, 0x1b, 0xbd, 0xc5, 0xd8, 0xa6, 0xba,
  0xb1, 0x89, 0x00, 0xbe, 0x7e, 0x05, 0x8b, 0x3e, 0x81, 0x2c, 0x3a, 0xbe,
  0xd6, 0x49, 0x9d, 0xbe, 0xae, 0x29, 0x20, 0xbe, 0x9f, 0x0a, 0x0b, 0xbe,
  0xd5, 0x42, 0xe5, 0xbd, 0x32, 0x05, 0xa2, 0x3e, 0x21, 0xcc, 0x89, 0xbd,
  0x24, 0xf7, 0xf9, 0xbd, 0x7f, 0x22, 0x32, 0x3d, 0x21, 0x09, 0x46, 0x3e,
  0xee, 0xe9, 0x2f, 0x3e, 0xea, 0x3d, 0x7f, 0xbe, 0x7f, 0xa2, 0x42, 0x3d,
  0x7b, 0xcc, 0xb5, 0xbd, 0x83, 0xca, 0xae, 0x3d, 0xbe, 0x27, 0xb8, 0xbd,
  0x59, 0x74, 0x81, 0x3b, 0x58, 0x51, 0x13, 0xbe, 0xbd, 0xab, 0xf0, 0xbc,
  0xde, 0xcc, 0x89, 0xbe, 0x63, 0xb4, 0x2f, 0x3e, 0x9d, 0xe7, 0xbd, 0xbd,
  0xd1, 0xff, 0xb8, 0xbd, 0x4c, 0x86, 0x3b, 0xbd, 0x99, 0x93, 0x9b, 0xbd,
  0x8c, 0x27, 0x21, 0xbe, 0x8f, 0x64, 0x0e, 0xbd, 0x93, 0xa5, 0x96, 0x3e,
  0x00, 0x5d, 0xd1, 0xbd, 0x18, 0x7f, 0x30, 0x3e, 0x9f, 0xba, 0x95, 0xbd,
  0x10, 0x60, 0x40, 0x3e, 0x9c, 0x44, 0x31, 0x3e, 0x1e, 0xae, 0xbd, 0x3e,
  0xe8, 0x37, 0xf2, 0xbd, 0x77, 0xc5, 0x3b, 0x3d, 0xd5, 0x9e, 0x81, 0xbe,
  0xae, 0xd4, 0x86, 0x3e, 0xa4, 0x08, 0x4b, 0xbd, 0xe2, 0x47, 0x03, 0x3e,
  0xc5, 0x23, 0x3c, 0x3c, 0xf0, 0x13, 0xa7, 0x3e, 0x5b, 0xcb, 0xfa, 0xbd,
  0x5c, 0x9f, 0xa9, 0xbd, 0xd4, 0xe7, 0x83, 0x3e, 0xb0, 0x65, 0x02, 0xbe,
  0x20, 0xba, 0xd6, 0x3c, 0x60, 0x52, 0x89, 0xbd, 0x4f, 0x77, 0x33, 0x3d,
  0x32, 0x2a, 0x75, 0x3d, 0x0b, 0x96, 0xb8, 0xbd, 0x72, 0xac, 0x2b, 0xbc,
  0x0e, 0x6a, 0xe5, 0x3d, 0x8c, 0x17, 0x01, 0x3a, 0xc1, 0x50, 0xab, 0x3c,
  0x4f, 0x35, 0x87, 0xbd, 0xa5, 0xd0, 0x3b, 0x3d, 0x8d, 0x06, 0xcd, 0xbd,
  0x94, 0xea, 0x06, 0xbe, 0x49, 0x1e, 0x0c, 0x3f, 0x07, 0x34, 0xa8, 0xbd,
  0x0c, 0xc3, 0xa7, 0x3d, 0xe7, 0x3b, 0x51, 0xba, 0x6e, 0x25, 0x7c, 0xbd,
  0x46, 0x96, 0x4e, 0xbc, 0x73, 0xee, 0x8b, 0x3e, 0x22, 0x21, 0xd7, 0xbd,
  0xc4, 0xb0, 0x5c, 0xbe, 0x2f, 0x69, 0xaa, 0x3e, 0xc7, 0xa8, 0x80, 0xbd,
  0x32, 0xef, 0xd5, 0x3d, 0xb1, 0x21, 0x60, 0xbe, 0x98, 0x25, 0x47, 0x3e,
  0x30, 0xc8, 0xab, 0xbd, 0xf6, 0xe3, 0x5c, 0xbe, 0x41, 0x64, 0x1b, 0xbe,
  0x0b, 0xe2, 0x8a, 0x3d, 0xa5, 0x18, 0xb7, 0xbd, 0xd2, 0x90, 0xfb, 0xbd,
  0xad, 0xff, 0x98, 0x3d, 0xfc, 0xc4, 0x0e, 0x3e, 0xdf, 0xa3, 0xbf, 0x3c,
  0xb2, 0x4f, 0x23, 0x3e, 0x14, 0xf7, 0xb7, 0xbc, 0x49, 0xcc, 0x11, 0xbe,
  0x5a, 0xb0, 0x12, 0x3e, 0x6d, 0xdf, 0x20, 0x3d, 0x6a, 0x01, 0x22, 0xbd,
  0x19, 0xbe, 0x12, 0x3e, 0x4a, 0xde, 0x24, 0xbc, 0x3a, 0x7a, 0x24, 0x3e,
  0x7c, 0x41, 0x49, 0x3e, 0xfd, 0x18, 0xfb, 0x3d, 0x11, 0xbc, 0x78, 0xbc,
  0xb8, 0x85, 0x54, 0x3e, 0xf5, 0xf8, 0x06, 0xbe, 0x92, 0x91, 0x71, 0xbd,
  0xeb, 0xf2, 0x73, 0x3e, 0x06, 0xff, 0x85, 0x3d, 0x28, 0xe9, 0x08, 0x3e,
  0x80, 0x2f, 0x3c, 0xbe, 0x72, 0xdb, 0x3e, 0x3e, 0xd1, 0x79, 0xb1, 0x3c,
  0x4e, 0x6f, 0xc9, 0xbd, 0xe3, 0xc9, 0x67, 0xbc, 0xe8, 0x85, 0x80, 0xbd,
  0x39, 0x49, 0x9c, 0xbd, 0x5f, 0x33, 0x5d, 0x3e, 0xc1, 0x9b, 0x58, 0x3b,
  0xc5, 0xb3, 0x34, 0xbd, 0xb6, 0x82, 0x9c, 0xbc, 0x35, 0x9c, 0x8a, 0xbe,
  0xbe, 0x6e, 0xb6, 0xbe, 0x46, 0x75, 0xe7, 0xbd, 0x39, 0x7c, 0x34, 0xbe,
  0xe0, 0x1b, 0x54, 0xbe, 0xe9, 0xa8, 0x88, 0xbe, 0x0c, 0x63, 0x7b, 0xbe,
  0x81, 0xb5, 0x43, 0xbe, 0xde, 0xa7, 0xdd, 0x3b, 0x82, 0x72, 0x9f, 0x3e,
  0xe0, 0x02, 0x56, 0x3e, 0x93, 0xb4, 0x7f, 0xbd, 0x29, 0xaf, 0x99, 0xbd,
  0xec, 0xb6, 0x31, 0xbd, 0x7d, 0x98, 0xb2, 0x39, 0x10, 0x8b, 0x4b, 0x3e,
  0xcc, 0xd0, 0xc6, 0xbd, 0x69, 0x8e, 0x77, 0xbe, 0x46, 0x53, 0x4d, 0xbe,
  0x17, 0x6c, 0xbb, 0xbd, 0x63, 0x6c, 0xb7, 0x3d, 0x49, 0x91, 0xb8, 0xbd,
  0x59, 0xb5, 0x76, 0xbe, 0x0e, 0x10, 0x19, 0xbe, 0xa6, 0x64, 0x0e, 0x3e,
  0xd9, 0x8d, 0x28, 0x3e, 0x8b, 0x55, 0xc5, 0x3d, 0xaf, 0x92, 0x93, 0xbd,
  0xaf, 0x73, 0xad, 0xbd, 0xd0, 0xd8, 0x45, 0x3d, 0xd7, 0x0a, 0xd1, 0x3d,
  0x54, 0x6d, 0xa6, 0xbd, 0xe9, 0x71, 0x23, 0x3e, 0xb4, 0xbd, 0xbe, 0xbd,
  0xc0, 0xea, 0x98, 0x3e, 0x67, 0xbc, 0x81, 0x3c, 0xab, 0x0f, 0x83, 0xbe,
  0x32, 0x0c, 0xc6, 0xbe, 0x21, 0x05, 0xde, 0x3e, 0x61, 0x73, 0x21, 0xbd,
  0x33, 0x38, 0x84, 0xbd, 0xa2, 0xab, 0xa9, 0x3d, 0x6c, 0xc1, 0xcd, 0xbe,
  0xc4, 0x02, 0xe8, 0x3d, 0x77, 0x9a, 0xfc, 0xbd, 0x03, 0x5f, 0x5f, 0xbd,
  0xe1, 0xc4, 0xd2, 0xbe, 0x71, 0xcd, 0x71, 0xbd, 0xf0, 0x82, 0xa9, 0xbe,
  0x3b, 0x11, 0x59, 0xbc, 0xad, 0x3f, 0x02, 0xbf, 0x8c, 0x3d, 0xac, 0xbd,
  0xd4, 0xb6, 0x73, 0xbb, 0x89, 0xbc, 0xb5, 0x3e, 0x38, 0x36, 0xbf, 0xbe,
  0x9e, 0xd9, 0xb9, 0xbd, 0x4b, 0x41, 0x92, 0xbe, 0x37, 0x48, 0x52, 0xbe,
  0xc3, 0x7c, 0x16, 0x3e, 0x4a, 0x28, 0x4b, 0x3d, 0x16, 0x37, 0x96, 0x3d,
  0xb1, 0xbe, 0x66, 0x3e, 0x82, 0x05, 0xaf, 0xbe, 0x80, 0xb0, 0xbf, 0xbd,
  0x61, 0xfb, 0xbf, 0xbd, 0x5e, 0xec, 0xad, 0x3d, 0xb0, 0xf5, 0x8c, 0xbd,
  0x00, 0x1b, 0x1a, 0xbd, 0x53, 0x42, 0xb2, 0xbd, 0xcb, 0x36, 0xa9, 0x3c,
  0xdb, 0x48, 0x54, 0xbe, 0x60, 0xe0, 0xe6, 0xbd, 0x04, 0xd0, 0x22, 0xbe,
  0xb5, 0x92, 0x46, 0xbe, 0x5c, 0x10, 0x4e, 0xbe, 0xc2, 0x35, 0x08, 0xbe,
  0xed, 0x15, 0x9e, 0x3e, 0x09, 0xc6, 0x16, 0x3e, 0xe2, 0x8c, 0x91, 0x3c,
  0xf8, 0x8f, 0x15, 0xbe, 0xd1, 0x62, 0x6d, 0x3e, 0xce, 0x11, 0x97, 0xbc,
  0x48, 0xd2, 0x3f, 0x3d, 0x2a, 0x08, 0x0f, 0xbe, 0x25, 0x03, 0xfe, 0xbb,
  0xb5, 0xa7, 0x0a, 0x3f, 0x33, 0x9e, 0x35, 0x3e, 0xbc, 0x7d, 0xeb, 0xbc,
  0xb0, 0x07, 0x4f, 0x3e, 0x93, 0xe2, 0x43, 0x3e, 0x6b, 0x92, 0x82, 0x3d,
  0xfc, 0xb3, 0xea, 0x3d, 0x26, 0x24, 0x91, 0xbd, 0xf4, 0x73, 0x82, 0xbe,
  0xe5, 0x20, 0x50, 0x3e, 0xc8, 0x3b, 0x51, 0x3e, 0x7e, 0x8e, 0x25, 0x3e,
  0xeb, 0x2b, 0xae, 0x3d, 0x05, 0xa7, 0xa9, 0x3c, 0x84, 0x34, 0xca, 0x3c,
  0x1f, 0x8b, 0x1f, 0xbe, 0xa5, 0x7f, 0x28, 0xbe, 0x36, 0x0e, 0x33, 0xbd,
  0x05, 0xf3, 0xd2, 0xbd, 0xca, 0x4d, 0xe7, 0xbd, 0x62, 0xae, 0x2e, 0x3c,
  0xe4, 0xa5, 0x03, 0x3e, 0x89, 0x07, 0x28, 0xbd, 0xaa, 0x9c, 0xcd, 0x3e,
  0x5f, 0xe5, 0xf1, 0xbd, 0xdc, 0x86, 0x67, 0xbc, 0xcc, 0x6f, 0xcf, 0xbd,
  0xe3, 0x71, 0x68, 0xbe, 0xf7, 0x85, 0xb0, 0x3d, 0x70, 0xf1, 0x06, 0x3e,
  0x50, 0x78, 0x26, 0xbd, 0x8c, 0x1f, 0x0f, 0x3d, 0x1b, 0x04, 0x07, 0xbd,
  0x0e, 0x1f, 0xc5, 0x3e, 0x11, 0x17, 0x55, 0x3c, 0xc6, 0xf3, 0x6d, 0xbe,
  0xaf, 0xb0, 0x35, 0xbe, 0xb9, 0xd6, 0x7d, 0xbe, 0x2d, 0x2b, 0x92, 0xbd,
  0x85, 0x0b, 0x04, 0x3d, 0x12, 0x4e, 0x48, 0x3e, 0xc9, 0xbf, 0x03, 0xbe,
  0xe2, 0x52, 0x46, 0xbe, 0xfa, 0xeb, 0x90, 0xbd, 0xec, 0xde, 0x09, 0xbe,
  0x59, 0x97, 0xdb, 0xbc, 0xf8, 0x2d, 0x5c, 0xbe, 0x63, 0xf0, 0x0d, 0xbf,
  0xc6, 0x0d, 0x91, 0x3e, 0x7a, 0x91, 0x2a, 0x3d, 0x43, 0x25, 0xc1, 0xbd,
  0x1b, 0xec, 0x7d, 0xbd, 0xb8, 0x76, 0x29, 0xbe, 0x74, 0x14, 0xc4, 0xbd,
  0x0c, 0xf3, 0xc9, 0xbd, 0x3e, 0x2f, 0x95, 0xbd, 0x4d, 0xf3, 0xe0, 0x3d,
  0x2f, 0x38, 0xe5, 0x3e, 0xc5, 0xda, 0x92, 0xbd, 0x6e, 0xf1, 0x2c, 0x3e,
  0x60, 0xe4, 0x72, 0xbe, 0x9c, 0xe5, 0x6c, 0x3e, 0x3c, 0x66, 0x3e, 0xbd,
  0xbf, 0xf2, 0x8d, 0xbd, 0x8f, 0x3b, 0x82, 0xbe, 0xa5, 0x6c, 0xca, 0xbe,
  0x6e, 0xa0, 0x25, 0x3d, 0x42, 0x0c, 0x6b, 0xbe, 0xe0, 0xbb, 0x0f, 0x3c,
  0x80, 0xb0, 0xca, 0xbc, 0x0a, 0x25, 0x51, 0xbd, 0xf6, 0xfb, 0x7a, 0x3e,
  0x00, 0xde, 0x3e, 0xbc, 0x45, 0xcb, 0x85, 0xbe, 0xf1, 0xe5, 0x07, 0xbd,
  0x0a, 0xdf, 0xff, 0xff, 0x10, 0x00, 0x00, 0x00, 0x08, 0x00, 0x00, 0x00,
  0x1c, 0x00, 0x00, 0x00, 0x38, 0x00, 0x00, 0x00, 0x04, 0x00, 0x00, 0x00,
  0x10, 0x00, 0x00, 0x00, 0x04, 0x00, 0x00, 0x00, 0x01, 0x00, 0x00, 0x00,
  0x08, 0x00, 0x00, 0x00, 0x1a, 0x00, 0x00, 0x00, 0x73, 0x65, 0x71, 0x75,
  0x65, 0x6e, 0x74, 0x69, 0x61, 0x6c, 0x2f, 0x63, 0x6f, 0x6e, 0x76, 0x32,
  0x64, 0x5f, 0x31, 0x2f, 0x43, 0x6f, 0x6e, 0x76, 0x32, 0x44, 0x00, 0x00,
  0x04, 0xdf, 0xff, 0xff, 0xfa, 0xdf, 0xff, 0xff, 0x04, 0x00, 0x00, 0x00,
  0x80, 0x01, 0x00, 0x00, 0xd9, 0xb6, 0x36, 0x3d, 0x72, 0x60, 0x88, 0x3e,
  0x9e, 0x50, 0xc8, 0x3e, 0x96, 0x63, 0x31, 0xbd, 0xbb, 0xc1, 0x42, 0xbd,
  0x71, 0x28, 0xa3, 0xbd, 0xf9, 0x0f, 0x45, 0x3d, 0x96, 0xcc, 0x1f, 0xbe,
  0xa5, 0x26, 0x5b, 0xbe, 0x0e, 0x81, 0x67, 0xbd, 0x1c, 0xa8, 0x8b, 0xbd,
  0x37, 0x9e, 0xda, 0xbd, 0xe4, 0x77, 0x2f, 0x3d, 0xb6, 0x26, 0xc3, 0xbe,
  0xc5, 0x1e, 0x02, 0xbe, 0x42, 0x1e, 0x30, 0xbc, 0xdd, 0xe2, 0x56, 0x3e,
  0x7a, 0x11, 0x23, 0x3e, 0xe6, 0x87, 0x08, 0xbe, 0x99, 0x7d, 0x0c, 0xbd,
  0x7e, 0x5a, 0x69, 0xbd, 0x8a, 0x47, 0x56, 0xbd, 0xaf, 0x2d, 0x34, 0x3a,
  0x27, 0x40, 0xc1, 0xbd, 0x8f, 0x2c, 0x82, 0x3e, 0x15, 0x9b, 0xd1, 0x3e,
  0x20, 0xf8, 0x05, 0xbe, 0x85, 0xbf, 0x81, 0x3b, 0x10, 0x3d, 0xb0, 0xbd,
  0xf1, 0x38, 0xc7, 0x3d, 0x6b, 0x6a, 0x45, 0xbe, 0x13, 0x4f, 0xa1, 0xbe,
  0x2a, 0x95, 0x71, 0x3c, 0xe8, 0xca, 0x09, 0xbe, 0x44, 0xdb, 0x02, 0xbe,
  0xdf, 0xc4, 0x17, 0xbc, 0x3c, 0x2d, 0x27, 0xbe, 0x8e, 0xd9, 0x8d, 0xbe,
  0xf7, 0x40, 0x30, 0xbe, 0x03, 0x6f, 0xd6, 0x3d, 0xc3, 0xd8, 0x30, 0x3e,
  0xa1, 0xb2, 0x06, 0x3e, 0x47, 0x99, 0x04, 0xbe, 0x57, 0x04, 0xbe, 0xbd,
  0xeb, 0x7e, 0x19, 0x3d, 0x34, 0xb2, 0x38, 0xbd, 0x3a, 0xe4, 0xfc, 0x3a,
  0xae, 0x54, 0x51, 0xbc, 0xee, 0x0f, 0x81, 0xbd, 0x03, 0x2c, 0x8f, 0xbd,
  0x76, 0xbd, 0x83, 0xbd, 0xf0, 0x58, 0x05, 0xbf, 0x86, 0x55, 0xc8, 0xbe,
  0xcb, 0x9a, 0x0b, 0x3d, 0xe8, 0x76, 0xdc, 0x3e, 0x7f, 0x6e, 0x54, 0x3e,
  0xb2, 0x3f, 0x3f, 0xbd, 0xaa, 0xbf, 0x38, 0x3e, 0xc7, 0x72, 0x6a, 0x3e,
  0x4c, 0x89, 0xcc, 0x39, 0xff, 0x5a, 0x7c, 0xbe, 0x07, 0xf0, 0x1e, 0xbe,
  0x77, 0xef, 0x8f, 0xba, 0x3b, 0x91, 0x73, 0xbe, 0x33, 0x1a, 0x7a, 0xbe,
  0xae, 0xb3, 0x7b, 0xbe, 0xbb, 0x00, 0x7e, 0x3e, 0x2a, 0x99, 0x0b, 0x3e,
  0x39, 0x02, 0x11, 0x3e, 0xcd, 0xc6, 0x87, 0x3e, 0xcf, 0xaf, 0x64, 0x3e,
  0xb3, 0x2f, 0x67, 0x3c, 0x5f, 0xfc, 0xa8, 0x3d, 0x2c, 0x8d, 0x69, 0x3e,
  0x24, 0x4b, 0x41, 0x3e, 0xbd, 0x6f, 0x25, 0x3d, 0x8e, 0x0d, 0xaf, 0x3e,
  0x5c, 0xb4, 0x87, 0x3d, 0xcd, 0x75, 0x5a, 0xbe, 0xe6, 0xd2, 0xe2, 0xbe,
  0x46, 0x5a, 0x0e, 0xbe, 0x6f, 0xdf, 0x85, 0x3d, 0xce, 0x2f, 0xb9, 0xbd,
  0xe1, 0x4f, 0x63, 0xbd, 0x4e, 0x2a, 0x4a, 0xbd, 0x28, 0xd4, 0x83, 0xbe,
  0x6e, 0x1b, 0x67, 0xbe, 0xd3, 0x3f, 0x05, 0x3c, 0x9f, 0x24, 0x16, 0x3e,
  0x10, 0xc1, 0x8b, 0x3e, 0xb3, 0xd2, 0x15, 0xbd, 0x11, 0xed, 0xac, 0xbd,
  0xd3, 0x9f, 0x83, 0xbd, 0x69, 0x0b, 0xa2, 0xbd, 0x74, 0x93, 0x89, 0x3c,
  0x5a, 0x55, 0xac, 0xbd, 0xe2, 0xe0, 0xff, 0xff, 0x10, 0x00, 0x00, 0x00,
  0x07, 0x00, 0x00, 0x00, 0x1c, 0x00, 0x00, 0x00, 0x38, 0x00, 0x00, 0x00,
  0x04, 0x00, 0x00, 0x00, 0x08, 0x00, 0x00, 0x00, 0x04, 0x00, 0x00, 0x00,
  0x03, 0x00, 0x00, 0x00, 0x01, 0x00, 0x00, 0x00, 0x18, 0x00, 0x00, 0x00,
  0x73, 0x65, 0x71, 0x75, 0x65, 0x6e, 0x74, 0x69, 0x61, 0x6c, 0x2f, 0x63,
  0x6f, 0x6e, 0x76, 0x32, 0x64, 0x2f, 0x43, 0x6f, 0x6e, 0x76, 0x32, 0x44,
  0x00, 0x00, 0x00, 0x00, 0xdc, 0xe0, 0xff, 0xff, 0xd2, 0xe1, 0xff, 0xff,
  0x04, 0x00, 0x00, 0x00, 0xc0, 0x00, 0x00, 0x00, 0x13, 0xa1, 0xc1, 0xbf,
  0xda, 0xa5, 0x5f, 0xbe, 0x02, 0x66, 0xb1, 0xbf, 0x39, 0x9e, 0x97, 0xbe,
  0x23, 0x77, 0x80, 0xbf, 0xe9, 0xeb, 0x80, 0xbe, 0x40, 0x9e, 0x94, 0xbf,
  0x37, 0x43, 0x16, 0xbf, 0xed, 0x34, 0x3a, 0xbf, 0x65, 0xc7, 0xab, 0xbe,
  0x17, 0xf6, 0x1c, 0x3f, 0x8a, 0x72, 0x59, 0x3f, 0x81, 0x36, 0x8d, 0x3f,
  0xb9, 0x3d, 0x73, 0xbf, 0xb1, 0xdd, 0xb3, 0xbf, 0x8a, 0x56, 0xad, 0xbf,
  0x58, 0x5c, 0xa1, 0xbd, 0x60, 0xca, 0xba, 0xbe, 0x78, 0xdf, 0x64, 0x3e,
  0x8c, 0x84, 0xe7, 0x3d, 0x69, 0x2c, 0xce, 0x3e, 0x07, 0xb4, 0x88, 0xbc,
  0x94, 0x55, 0xcd, 0x3e, 0xa4, 0x25, 0x8b, 0xbe, 0x0b, 0x8a, 0x0c, 0xbe,
  0xee, 0x4b, 0x7a, 0x3e, 0xe5, 0x39, 0x3f, 0xbe, 0x9d, 0x67, 0xe7, 0x3c,
  0x7d, 0x23, 0x3b, 0x3e, 0x72, 0xde, 0x34, 0x3e, 0xdc, 0x91, 0x99, 0xbe,
  0x68, 0x13, 0x17, 0xbe, 0x86, 0xab, 0x1a, 0xbd, 0xb2, 0x2f, 0xf4, 0x3e,
  0x4c, 0x0d, 0x85, 0x3e, 0xf6, 0x80, 0x37, 0x3e, 0x60, 0x0f, 0xa2, 0x3e,
  0x0a, 0x28, 0x61, 0xbe, 0xd9, 0xe9, 0xa4, 0x3e, 0xa5, 0x8a, 0xc9, 0xbe,
  0x1b, 0xf9, 0x82, 0xbe, 0xff, 0x5e, 0x2e, 0x3e, 0x6e, 0x5c, 0xc6, 0xbe,
  0x0b, 0xee, 0x01, 0xbc, 0x2f, 0xde, 0x82, 0xbe, 0x16, 0xa4, 0x0f, 0x3e,
  0x0f, 0x88, 0xb2, 0xbe, 0x08, 0x5a, 0xe3, 0xbd, 0xfa, 0xe1, 0xff, 0xff,
  0x10, 0x00, 0x00, 0x00, 0x06, 0x00, 0x00, 0x00, 0x14, 0x00, 0x00, 0x00,
  0x30, 0x00, 0x00, 0x00, 0x02, 0x00, 0x00, 0x00, 0x03, 0x00, 0x00, 0x00,
  0x10, 0x00, 0x00, 0x00, 0x19, 0x00, 0x00, 0x00, 0x73, 0x65, 0x71, 0x75,
  0x65, 0x6e, 0x74, 0x69, 0x61, 0x6c, 0x2f, 0x64, 0x65, 0x6e, 0x73, 0x65,
  0x5f, 0x31, 0x2f, 0x4d, 0x61, 0x74, 0x4d, 0x75, 0x6c, 0x00, 0x00, 0x00,
  0xec, 0xe1, 0xff, 0xff, 0xe2, 0xe2, 0xff, 0xff, 0x04, 0x00, 0x00, 0x00,
  0x00, 0x1c, 0x00, 0x00, 0xf6, 0xa2, 0xa3, 0xbe, 0x83, 0x81, 0x7d, 0xbe,
  0xb7, 0x41, 0xf8, 0xbd, 0xfd, 0xf7, 0x47, 0xbe, 0xa8, 0xa6, 0xc1, 0xbe,
  0x4a, 0xb7, 0x83, 0x3e, 0x8c, 0x22, 0x01, 0x3f, 0x05, 0x4e, 0x03, 0xbf,
  0x08, 0xb2, 0x00, 0xbe, 0xf1, 0xf0, 0xfa, 0xbb, 0x23, 0x51, 0xb3, 0x3d,
  0xfc, 0x02, 0x16, 0x3e, 0x5a, 0xae, 0x3b, 0x3d, 0x51, 0x7f, 0x1b, 0xbe,
  0x87, 0xd7, 0xe8, 0xbd, 0xc4, 0x9d, 0x95, 0xbe, 0x06, 0x5f, 0x29, 0x3e,
  0x48, 0x89, 0x98, 0xbd, 0xe3, 0x67, 0xbd, 0x3d, 0xe8, 0x70, 0x87, 0x3e,
  0x07, 0xd2, 0x6a, 0xbe, 0x0f, 0x42, 0x7b, 0x3e, 0xbd, 0xab, 0x83, 0xbe,
  0xd0, 0x5e, 0x4e, 0x3e, 0x1c, 0x7f, 0x58, 0x3c, 0xa2, 0xe7, 0xd5, 0xbd,
  0x41, 0x52, 0xb7, 0x3d, 0xc2, 0xb7, 0x81, 0xbe, 0xef, 0x24, 0xc2, 0xbd,
  0x1c, 0xb8, 0x30, 0x3e, 0x98, 0x89, 0x42, 0x3e, 0xf4, 0x5c, 0x84, 0x3d,
  0x31, 0x5d, 0x46, 0x3e, 0xf3, 0x40, 0x3d, 0x3e, 0xa9, 0xd8, 0x5b, 0x3e,
  0x44, 0x33, 0x52, 0x3f, 0x82, 0x18, 0x3b, 0x3e, 0x5d, 0x9d, 0x81, 0x3e,
  0x1d, 0x1e, 0x41, 0xbe, 0x12, 0xbb, 0x67, 0x3e, 0x8a, 0x3f, 0x6a, 0x3e,
  0x20, 0xc7, 0x87, 0x3e, 0x2d, 0x95, 0x16, 0x3e, 0x54, 0x57, 0x00, 0x3e,
  0xf8, 0xcf, 0x2e, 0x3e, 0x46, 0x51, 0x25, 0xbc, 0x20, 0x22, 0xa7, 0x3e,
  0xc1, 0x0b, 0x1e, 0x3e, 0xd1, 0x3d, 0x16, 0x3e, 0xe9, 0xa9, 0xe8, 0x3e,
  0xc6, 0x03, 0x7f, 0x3d, 0x44, 0x6c, 0xbe, 0x3e, 0x79, 0x53, 0xb3, 0x3e,
  0x83, 0x77, 0x04, 0xbe, 0x2e, 0xe8, 0xb7, 0xbe, 0x73, 0x06, 0x1a, 0x3f,
  0xf4, 0x19, 0xf9, 0x3d, 0x46, 0xa3, 0x83, 0x3e, 0x1c, 0xf5, 0x6a, 0xba,
  0x38, 0xca, 0x15, 0x3e, 0xb0, 0x84, 0xf3, 0x3d, 0x01, 0x18, 0x9b, 0x3e,
  0x94, 0x1e, 0x98, 0x3e, 0x4e, 0x43, 0x2c, 0xbe, 0xb6, 0xa0, 0x3d, 0xbe,
  0x16, 0x31, 0xca, 0xbe, 0x55, 0x61, 0xa2, 0xbd, 0xdc, 0x08, 0xaf, 0xbc,
  0x9e, 0xb3, 0xb1, 0x3c, 0x26, 0x59, 0xf7, 0xbd, 0xdc, 0x75, 0x1d, 0xbe,
  0xcb, 0xec, 0xa3, 0xbe, 0x14, 0xc4, 0x15, 0x3e, 0x75, 0x23, 0xd5, 0x3c,
  0x0d, 0x3b, 0x9f, 0xbc, 0x7b, 0x67, 0xb5, 0xbd, 0x8e, 0x1c, 0xb1, 0x3c,
  0xf9, 0x14, 0xc5, 0xbd, 0x6a, 0x8c, 0x85, 0x3d, 0xb1, 0x4b, 0xf0, 0x3d,
  0x96, 0x2c, 0x38, 0xbe, 0xf4, 0x2d, 0x40, 0xbd, 0xc2, 0xc6, 0x76, 0x3d,
  0xe7, 0x05, 0x07, 0xbe, 0xa7, 0xb7, 0xa1, 0xbc, 0x70, 0x44, 0x4f, 0x3e,
  0x9c, 0x48, 0x38, 0xbb, 0x83, 0xfe, 0xad, 0xbd, 0x01, 0x79, 0x3d, 0x3d,
  0x8c, 0xfd, 0x4a, 0x3e, 0x64, 0x23, 0x11, 0x3d, 0xa4, 0xdf, 0x0c, 0xbe,
  0xe7, 0xce, 0x3d, 0xbe, 0x64, 0xd3, 0x8c, 0x3d, 0x9c, 0x78, 0x92, 0xbc,
  0xe7, 0xdb, 0xfc, 0xbc, 0xd3, 0xa7, 0x7d, 0xbd, 0x47, 0x77, 0x75, 0xbe,
  0x58, 0x48, 0x94, 0x3d, 0x69, 0x82, 0x05, 0x3e, 0x18, 0xd2, 0xbc, 0xbc,
  0x34, 0x06, 0x8e, 0x3d, 0xcb, 0xba, 0xb1, 0xbd, 0x24, 0xd1, 0xd8, 0x3b,
  0x5a, 0xe4, 0x25, 0xbe, 0x7f, 0x9c, 0x5c, 0xbe, 0xa9, 0x97, 0x87, 0x3d,
  0x9e, 0x2f, 0xab, 0x3d, 0xc0, 0xb6, 0x1b, 0xbe, 0x46, 0xc2, 0x13, 0xbe,
  0xab, 0x1d, 0xc1, 0xbc, 0x84, 0x34, 0xee, 0x3d, 0x09, 0xc4, 0xe4, 0x3c,
  0x7a, 0x7e, 0x5b, 0xbe, 0xc5, 0x04, 0xd1, 0x3d, 0xea, 0x38, 0x27, 0x3d,
  0xa8, 0x2e, 0xe5, 0xbd, 0xe4, 0x34, 0x1e, 0xbe, 0xd7, 0x8a, 0x0d, 0x3e,
  0x97, 0xda, 0xcf, 0x3d, 0xd4, 0x45, 0x2b, 0x3c, 0xb7, 0x48, 0x3d, 0xbe,
  0x65, 0xe9, 0x55, 0x3d, 0x95, 0xa5, 0x76, 0xbe, 0x66, 0xd2, 0x13, 0x3d,
  0x16, 0xd8, 0x9c, 0x3c, 0x4a, 0x5c, 0x02, 0xbe, 0x40, 0x00, 0x82, 0xbe,
  0x6f, 0xda, 0x31, 0xbe, 0xee, 0x68, 0x5e, 0xbd, 0x71, 0x7b, 0x0b, 0xbe,
  0x6d, 0xe2, 0x56, 0xbe, 0xeb, 0x20, 0x00, 0x3e, 0x81, 0xd4, 0xe9, 0x3d,
  0x69, 0xb7, 0x48, 0xbe, 0xb4, 0xc2, 0xd6, 0xbc, 0x6d, 0x92, 0xf8, 0x3d,
  0x8e, 0x58, 0x40, 0xbe, 0xd2, 0x96, 0x83, 0xbe, 0xba, 0xef, 0x20, 0xbe,
  0x50, 0x8a, 0xac, 0xbb, 0x4d, 0xe4, 0xbd, 0x3d, 0xbb, 0x5d, 0x54, 0xbe,
  0x17, 0xaa, 0x03, 0x3d, 0x66, 0x6f, 0x9b, 0x3d, 0x7a, 0xb6, 0x84, 0x3d,
  0x07, 0xea, 0x00, 0xbe, 0x5e, 0x13, 0x8b, 0x3d, 0x61, 0xcf, 0x85, 0xbd,
  0x6f, 0x7b, 0x07, 0xbe, 0xa6, 0x0a, 0xb1, 0x3d, 0x89, 0xfc, 0x2f, 0x3e,
  0xc5, 0xa3, 0x3d, 0xbe, 0xce, 0xd1, 0xe2, 0xbd, 0xc5, 0x4b, 0x4d, 0xbe,
  0x04, 0x70, 0x51, 0x3d, 0xe0, 0x46, 0xdc, 0x3d, 0x98, 0xe4, 0x2a, 0x3d,
  0x4b, 0xe9, 0x8d, 0x3c, 0x58, 0x66, 0xfb, 0xbc, 0x71, 0x97, 0xe3, 0xbd,
  0x96, 0x51, 0xdb, 0xbd, 0x41, 0xda, 0x44, 0xbe, 0x19, 0x36, 0xd4, 0xbc,
  0x32, 0x20, 0x37, 0x3e, 0x59, 0xef, 0x98, 0x3c, 0xca, 0x7b, 0xd3, 0x3c,
  0x4b, 0x78, 0x3f, 0xbe, 0x7f, 0x72, 0x34, 0xbd, 0x67, 0x7e, 0x12, 0x3e,
  0xa8, 0xa7, 0x39, 0xbe, 0x0f, 0x7f, 0x0a, 0xbe, 0xdf, 0x37, 0x02, 0xbe,
  0xaa, 0x03, 0x77, 0xbe, 0x4c, 0x39, 0x5d, 0xbc, 0xfa, 0x41, 0xe1, 0x3d,
  0xa8, 0x32, 0x86, 0xbe, 0xcb, 0x96, 0x6e, 0xbd, 0xa3, 0x32, 0x18, 0xbe,
  0xd3, 0x3e, 0x05, 0xbe, 0xe4, 0x80, 0xb0, 0xbd, 0x30, 0x77, 0x93, 0xbd,
  0x74, 0x65, 0x97, 0xbd, 0xba, 0x64, 0x44, 0xbe, 0xcd, 0xaf, 0x7c, 0x3b,
  0x3a, 0x0e, 0x81, 0xba, 0x01, 0x2b, 0xcb, 0x3c, 0x4b, 0xcc, 0x56, 0xbe,
  0xf3, 0x17, 0x21, 0x3e, 0x4f, 0xa1, 0xb8, 0x3d, 0x4c, 0xa9, 0x97, 0x3d,
  0xdb, 0x06, 0xb4, 0x3d, 0x82, 0x73, 0x19, 0xbe, 0xeb, 0x54, 0x86, 0xbd,
  0xa5, 0x4c, 0x67, 0xbe, 0x56, 0x11, 0xa2, 0xbc, 0xe3, 0x83, 0x17, 0xbd,
  0xad, 0x29, 0x02, 0x3e, 0x79, 0xb0, 0xda, 0xbd, 0x42, 0xd1, 0x28, 0xbb,
  0x8c, 0x5e, 0x65, 0x3c, 0xc9, 0x95, 0x31, 0xbe, 0x9f, 0xfd, 0x9d, 0xbe,
  0xc5, 0xbe, 0x47, 0xbe, 0x58, 0x11, 0x31, 0x3e, 0xed, 0xbc, 0xab, 0x3c,
  0xc2, 0xc1, 0xfd, 0xbd, 0x1e, 0x57, 0x16, 0xbe, 0x3c, 0xd9, 0x87, 0xbd,
  0xcf, 0xa6, 0x66, 0xbd, 0x3c, 0xec, 0x1d, 0x3b, 0xe7, 0x0a, 0x43, 0xbe,
  0x58, 0x5c, 0x62, 0xbe, 0x48, 0x70, 0x07, 0x3d, 0xe1, 0x76, 0x50, 0x3d,
  0x40, 0x30, 0x01, 0x3e, 0x53, 0x39, 0xab, 0x3c, 0x4c, 0xfb, 0xcc, 0xbd,
  0x17, 0xaa, 0x83, 0xbe, 0x22, 0xe3, 0x52, 0xbe, 0xaa, 0x7f, 0x3c, 0xbe,
  0xd3, 0x1e, 0x1b, 0xbe, 0xe8, 0x33, 0x70, 0xbc, 0x4b, 0x39, 0x93, 0xbd,
  0x71, 0x79, 0x97, 0xbe, 0xea, 0x8e, 0x5d, 0xbe, 0x41, 0xe0, 0x8d, 0xbd,
  0xb8, 0xdb, 0x5a, 0xbe, 0x80, 0x84, 0x6d, 0xbe, 0x04, 0x85, 0xb5, 0x3e,
  0x8e, 0xdd, 0xdb, 0x3e, 0x7b, 0x6a, 0x20, 0xbf, 0x6a, 0x01, 0x82, 0xbe,
  0xa3, 0x29, 0xb3, 0xbd, 0x73, 0xaf, 0xd4, 0x3d, 0x6a, 0xad, 0x8b, 0x3e,
  0x25, 0x7f, 0x63, 0x3e, 0xe8, 0x2d, 0xce, 0xbd, 0xe0, 0xb2, 0xf1, 0x3d,
  0x64, 0xce, 0x53, 0xbe, 0x3d, 0x28, 0x04, 0x3c, 0xf3, 0x7b, 0x21, 0x3e,
  0x13, 0x1f, 0x39, 0x3d, 0x17, 0x3c, 0x94, 0x3e, 0x02, 0x74, 0xac, 0xbb,
  0x43, 0xb0, 0xa2, 0x3e, 0xf4, 0x88, 0x03, 0xbe, 0x48, 0x7d, 0x0a, 0xbd,
  0xbf, 0xfe, 0x52, 0x3e, 0x99, 0xd1, 0x35, 0x3d, 0xbf, 0x18, 0x8a, 0xbc,
  0x36, 0xb2, 0x28, 0x3e, 0xa1, 0x42, 0xc5, 0xbd, 0x0d, 0x09, 0xf7, 0x3d,
  0xc2, 0x26, 0xc5, 0xbd, 0x9e, 0x09, 0xd5, 0xbd, 0x48, 0xb0, 0x14, 0x3e,
  0x1b, 0x24, 0x91, 0x3e, 0xb3, 0x39, 0x13, 0xbd, 0x0b, 0x3c, 0x04, 0x3f,
  0xd3, 0xc9, 0xc1, 0x3e, 0xad, 0x10, 0x02, 0x3e, 0x4e, 0x69, 0x97, 0xbe,
  0xc6, 0x4a, 0x87, 0xbe, 0x18, 0x91, 0xfa, 0x3d, 0xe8, 0xcf, 0x8e, 0x3d,
  0x76, 0x6f, 0x6a, 0xbc, 0x51, 0x4e, 0x48, 0x3e, 0x0f, 0x02, 0x90, 0x3e,
  0x67, 0xb1, 0x27, 0x3e, 0x55, 0x7f, 0x6e, 0x3e, 0x29, 0x79, 0xe8, 0x3e,
  0x10, 0x49, 0x37, 0x3e, 0x01, 0x4c, 0x09, 0x3f, 0x0b, 0xb0, 0xe1, 0x3c,
  0xcf, 0x52, 0x30, 0x3e, 0x2e, 0xef, 0xbe, 0x3e, 0x63, 0x7c, 0xb1, 0xbc,
  0x2b, 0x86, 0xc8, 0xbd, 0x79, 0x11, 0x46, 0x3e, 0x16, 0x08, 0x92, 0x3e,
  0x94, 0xc0, 0x92, 0x3e, 0x83, 0x43, 0x80, 0x3e, 0xda, 0xdd, 0xd4, 0xbb,
  0xdb, 0x25, 0x2e, 0xbe, 0xa3, 0x5a, 0xd4, 0x3e, 0x5f, 0x8a, 0x1e, 0x3e,
  0xf4, 0x1a, 0x43, 0xbe, 0xa6, 0x05, 0xdd, 0xbe, 0x67, 0xc7, 0x9b, 0xbd,
  0x99, 0x7a, 0xfd, 0x3d, 0x5d, 0xd7, 0xaf, 0x3d, 0x47, 0x85, 0xc2, 0xbd,
  0x34, 0xc7, 0x17, 0xbe, 0xc3, 0xac, 0x64, 0xbe, 0x04, 0xe4, 0xbc, 0xbd,
  0xcb, 0xa3, 0x8a, 0xbd, 0x28, 0x14, 0x0a, 0x3e, 0x7a, 0x84, 0xa3, 0x3d,
  0x73, 0x5a, 0x93, 0x3d, 0x9a, 0x41, 0x89, 0x3d, 0xa4, 0xf5, 0x8e, 0xbd,
  0x78, 0xe1, 0xe7, 0x3d, 0xdb, 0x23, 0xff, 0xbd, 0xf4, 0x03, 0xd0, 0xbb,
  0xc3, 0xdb, 0xac, 0xbc, 0xbe, 0x78, 0x87, 0x3c, 0xa2, 0x9d, 0x79, 0xbe,
  0xf7, 0x72, 0xf1, 0xbc, 0xf7, 0xbd, 0x85, 0xbd, 0xed, 0x7e, 0x3e, 0xbe,
  0xf9, 0x6d, 0xa3, 0x3d, 0xf5, 0x4c, 0xe6, 0xbc, 0xcb, 0xbb, 0x14, 0x3e,
  0xeb, 0x60, 0xb0, 0xbd, 0xba, 0x2d, 0x85, 0x3d, 0xe8, 0xf3, 0x04, 0xbe,
  0x3a, 0x9c, 0x20, 0x3c, 0x73, 0x4d, 0xcd, 0xbd, 0x9c, 0x24, 0x0d, 0xbe,
  0xb2, 0xa6, 0x17, 0xbe, 0xf3, 0x7a, 0x87, 0xbe, 0xaf, 0x94, 0x35, 0xbc,
  0xf1, 0x04, 0xeb, 0xbd, 0xab, 0xea, 0xdf, 0xbd, 0x43, 0x5b, 0x16, 0xbd,
  0xaa, 0x22, 0x50, 0xbd, 0x64, 0x0c, 0x87, 0x3d, 0xfd, 0x05, 0xe2, 0xbc,
  0x92, 0x7a, 0x35, 0xbe, 0x7b, 0x0c, 0xbd, 0xbc, 0xcd, 0x60, 0xe7, 0x3c,
  0x74, 0x9a, 0x76, 0xbe, 0xec, 0x49, 0xaf, 0xbd, 0xe9, 0xda, 0x48, 0x3d,
  0x26, 0x3d, 0x08, 0x3d, 0x7e, 0x1b, 0x67, 0xbe, 0x85, 0xe4, 0x8c, 0xbd,
  0x22, 0xbe, 0x29, 0xbe, 0xbe, 0x11, 0x4d, 0xbe, 0x2a, 0x33, 0x94, 0xbd,
  0x19, 0x17, 0xaf, 0xbd, 0x20, 0xe5, 0xa6, 0x3e, 0xfa, 0x3f, 0x3d, 0x3d,
  0xe0, 0x69, 0x1f, 0xbe, 0x20, 0x90, 0x09, 0xbe, 0x91, 0xa8, 0x87, 0x3d,
  0x37, 0xe3, 0x22, 0x3c, 0x92, 0x95, 0x3b, 0xbe, 0x46, 0xd2, 0x19, 0xbe,
  0x09, 0x6b, 0xb1, 0xbc, 0xbd, 0x31, 0xcb, 0xbd, 0x68, 0x5f, 0x8d, 0x3e,
  0x67, 0xe0, 0x37, 0xbe, 0x5a, 0x99, 0x57, 0xbe, 0x39, 0x67, 0xea, 0xbc,
  0xde, 0xf3, 0x08, 0x3e, 0xfd, 0x9f, 0xd7, 0x3e, 0x9a, 0xba, 0x94, 0xbe,
  0xc1, 0xb3, 0x8e, 0x3e, 0x09, 0xc8, 0x78, 0x3d, 0xc3, 0xb7, 0x29, 0x3e,
  0xa9, 0xa5, 0xd9, 0xbc, 0x00, 0x43, 0xa3, 0x3c, 0x9f, 0x9c, 0x51, 0x3d,
  0x9f, 0x17, 0xaa, 0x3e, 0xdb, 0xb3, 0xa1, 0x3e, 0x1a, 0xc8, 0x52, 0x3e,
  0x35, 0xfe, 0xcb, 0x3e, 0xae, 0xc2, 0xd6, 0x3c, 0x25, 0x10, 0xbc, 0x3d,
  0x27, 0x93, 0x69, 0x3c, 0xd5, 0x2d, 0xd2, 0xbd, 0x55, 0x53, 0xd8, 0x3d,
  0x4f, 0x36, 0x32, 0xbb, 0x6c, 0x12, 0x7b, 0x3e, 0xfb, 0xe3, 0xd9, 0xbc,
  0x26, 0xb8, 0x9a, 0x3e, 0x69, 0xb9, 0x9c, 0xbd, 0xb9, 0xaf, 0xa0, 0x3e,
  0xc7, 0x83, 0x8a, 0x3e, 0x3d, 0x3e, 0xb5, 0xbc, 0xc7, 0xf3, 0xef, 0x3d,
  0x3d, 0x25, 0x36, 0x3e, 0x45, 0x0d, 0x81, 0xbe, 0x93, 0xec, 0x0b, 0x3f,
  0x3e, 0x4d, 0x3b, 0xbe, 0x7b, 0x03, 0x13, 0x3d, 0x7f, 0xb0, 0x3a, 0x3e,
  0x45, 0x69, 0xad, 0xbd, 0x77, 0x06, 0x4b, 0xbd, 0xb4, 0xd3, 0x78, 0x3e,
  0xf1, 0x5a, 0x33, 0xbe, 0x1f, 0x06, 0x10, 0x3e, 0xc5, 0xfc, 0xe3, 0x3d,
  0xb2, 0x08, 0x3c, 0xbe, 0x2a, 0x30, 0x12, 0x3e, 0x29, 0x21, 0xc5, 0xbd,
  0x73, 0x08, 0x34, 0xbe, 0x14, 0xa9, 0x33, 0xbe, 0xcc, 0x1f, 0x22, 0x3c,
  0x86, 0x56, 0x33, 0x3d, 0x1b, 0x61, 0x29, 0xba, 0x1c, 0x09, 0x38, 0xbd,
  0x14, 0xb3, 0x01, 0xbe, 0xb7, 0x26, 0xc8, 0x3e, 0x09, 0x7e, 0x6a, 0xbe,
  0x83, 0x2a, 0x7f, 0x3e, 0x2f, 0x7f, 0xfd, 0x3d, 0x76, 0x8c, 0x56, 0x3e,
  0xca, 0x67, 0xe5, 0xbd, 0xd0, 0xba, 0x31, 0xbe, 0xc7, 0x5d, 0x5c, 0x3d,
  0x98, 0x15, 0x04, 0xbe, 0x2e, 0x59, 0x96, 0xbd, 0x07, 0xc7, 0x2a, 0x3e,
  0x50, 0xa5, 0x87, 0x3c, 0x55, 0x78, 0x20, 0xbd, 0x00, 0xf9, 0x27, 0xbd,
  0x1a, 0xaa, 0xc0, 0x3d, 0x44, 0xfe, 0xa4, 0xbd, 0xa2, 0xb9, 0xbb, 0xbc,
  0xbd, 0x5d, 0xa3, 0x3d, 0x1a, 0x6b, 0x44, 0x3d, 0xee, 0x06, 0xdb, 0xbd,
  0xb8, 0x89, 0xf5, 0xbb, 0x2d, 0x4f, 0x44, 0xbe, 0xef, 0xa3, 0x9c, 0xbd,
  0xd0, 0xa0, 0x81, 0xbe, 0x02, 0x93, 0xf2, 0xbb, 0xde, 0xe9, 0xdd, 0x3c,
  0x06, 0xcf, 0xa6, 0xbd, 0x9b, 0x2d, 0x0c, 0xbd, 0xf4, 0xa7, 0x72, 0x3d,
  0x1d, 0x59, 0x94, 0xbc, 0xd0, 0xd1, 0x43, 0x3d, 0x32, 0xdc, 0x18, 0xbd,
  0xee, 0xa5, 0x82, 0x3e, 0xff, 0xe8, 0xeb, 0x3c, 0x6a, 0xa1, 0x41, 0x3e,
  0x73, 0xaa, 0x50, 0xbe, 0xc4, 0xb2, 0x57, 0xbd, 0xea, 0x2e, 0xf9, 0xbd,
  0x5d, 0xe6, 0x8d, 0xbe, 0x32, 0x44, 0x41, 0xbe, 0xd8, 0xf3, 0xb0, 0xbd,
  0x9f, 0x31, 0x1a, 0xbe, 0x44, 0x32, 0xf3, 0x3d, 0xad, 0x0f, 0x67, 0xbe,
  0x1b, 0x98, 0x15, 0xbf, 0x3e, 0x49, 0xd6, 0xbd, 0x2e, 0x94, 0xb2, 0x3d,
  0x15, 0xd9, 0x84, 0x3d, 0x1e, 0x6f, 0xe5, 0xbe, 0x95, 0xac, 0xb2, 0xbe,
  0x8d, 0x18, 0x18, 0xbe, 0xef, 0xcf, 0xe7, 0xbd, 0xf6, 0xfc, 0x89, 0xbe,
  0x98, 0x5d, 0xa5, 0xbd, 0x06, 0x35, 0xda, 0xbd, 0xf5, 0xff, 0x9c, 0xbe,
  0x84, 0x82, 0xa2, 0xbe, 0xea, 0x3e, 0x83, 0xbe, 0xbe, 0x45, 0xb9, 0xbe,
  0x09, 0x78, 0xca, 0xbe, 0x76, 0xec, 0x9c, 0xbe, 0xa7, 0x56, 0x01, 0xbd,
  0xa9, 0xd4, 0x6e, 0xbe, 0x78, 0x12, 0xde, 0xbc, 0x1c, 0x12, 0x81, 0xbe,
  0x49, 0x43, 0x94, 0xbe, 0x30, 0x47, 0x33, 0xbd, 0xcc, 0x9a, 0xc3, 0xbc,
  0xcf, 0x7f, 0x2d, 0x3c, 0xf3, 0x8a, 0xc6, 0xbc, 0xfb, 0xa4, 0x8d, 0x3d,
  0xf5, 0xed, 0x85, 0xbe, 0x7a, 0x9f, 0x49, 0x3d, 0x94, 0x34, 0xb7, 0xbc,
  0xcb, 0x13, 0xc6, 0xbc, 0xed, 0xaf, 0x1a, 0xbf, 0x68, 0xba, 0xb8, 0x3c,
  0x6a, 0xde, 0x1a, 0x3d, 0xa7, 0x79, 0xbb, 0xbe, 0x20, 0x18, 0x0e, 0xbd,
  0x4b, 0x4c, 0x8a, 0xbe, 0xb7, 0x98, 0xfe, 0xbd, 0x39, 0x16, 0x0d, 0xbe,
  0x60, 0xd9, 0x20, 0xbd, 0xa8, 0xcc, 0x13, 0xbe, 0xcf, 0x68, 0x48, 0xbd,
  0x6a, 0x4b, 0x32, 0x3c, 0x1f, 0xf7, 0xa3, 0xbe, 0x61, 0xcf, 0x93, 0x3d,
  0x59, 0x11, 0x95, 0x3c, 0x71, 0x5b, 0xf3, 0xbd, 0x92, 0xa6, 0xb1, 0xbe,
  0x39, 0xe3, 0xa2, 0xbd, 0x04, 0xae, 0x5a, 0xbe, 0x13, 0xfb, 0x31, 0xbe,
  0x2c, 0x69, 0x3b, 0xbd, 0x1d, 0x3a, 0x04, 0xbf, 0xd1, 0xfb, 0x71, 0xbe,
  0x12, 0xec, 0xf3, 0x3b, 0x48, 0x97, 0x7d, 0xbc, 0x45, 0x87, 0xba, 0xbd,
  0xd7, 0x97, 0xd7, 0xbd, 0x78, 0xd0, 0x69, 0x3c, 0x96, 0x8d, 0xd5, 0xbe,
  0x5f, 0xe9, 0xa2, 0xbe, 0x82, 0x74, 0xfc, 0xbe, 0xc0, 0x5f, 0x28, 0xbd,
  0xc3, 0xf1, 0x7d, 0xbe, 0xc5, 0x12, 0x35, 0xbe, 0xee, 0xe9, 0x40, 0xbe,
  0x1b, 0x15, 0xb0, 0xbe, 0xd3, 0x15, 0x10, 0x3d, 0x4f, 0x9b, 0x32, 0xbd,
  0xc5, 0xcd, 0xa1, 0x3d, 0xe4, 0xc0, 0x33, 0xbe, 0x58, 0x9d, 0x17, 0xbe,
  0x1e, 0xa8, 0xcd, 0xbc, 0xbb, 0x5f, 0x0b, 0xbe, 0x4d, 0x76, 0x55, 0xbd,
  0xc5, 0xc2, 0xb0, 0x3d, 0x70, 0x1a, 0x82, 0xbe, 0x4c, 0x33, 0x0c, 0xbe,
  0xb2, 0xfb, 0x54, 0xbd, 0xef, 0xfd, 0xde, 0x3d, 0x47, 0x66, 0x67, 0xbd,
  0xa3, 0x51, 0x21, 0x3e, 0xc3, 0x7e, 0x65, 0x3e, 0x31, 0x3e, 0x92, 0xbd,
  0x9a, 0xb9, 0x36, 0x3e, 0xa4, 0xfe, 0x3d, 0xbe, 0xc0, 0xaa, 0x98, 0x3d,
  0xc7, 0x8a, 0xc2, 0xbd, 0x08, 0x65, 0x76, 0xbe, 0x10, 0x98, 0xbc, 0xbd,
  0x8e, 0x3e, 0xac, 0xbd, 0xc5, 0xc0, 0x18, 0x3e, 0xfa, 0xbe, 0xb3, 0x3d,
  0x0c, 0x86, 0x8a, 0x3d, 0x24, 0x34, 0x9f, 0x3c, 0x0c, 0x72, 0x07, 0x3f,
  0x5c, 0x1e, 0xb7, 0x3e, 0xef, 0x24, 0x84, 0x3d, 0xf9, 0x00, 0xff, 0x3c,
  0xbf, 0x18, 0xbe, 0x3b, 0x67, 0x83, 0x9e, 0x3e, 0x10, 0xd0, 0x09, 0xbe,
  0x99, 0xd4, 0xc0, 0x3d, 0x1f, 0x6a, 0x8c, 0x3d, 0xd0, 0x5d, 0xaa, 0x3d,
  0xcd, 0x12, 0xc5, 0x3c, 0x19, 0xff, 0xcd, 0xbc, 0xd8, 0xfa, 0x62, 0x3e,
  0xf9, 0x32, 0x63, 0x3e, 0xde, 0xd4, 0x8e, 0x3e, 0x44, 0x5b, 0x2f, 0x3e,
  0xed, 0x2a, 0x23, 0x3e, 0xe8, 0x34, 0x39, 0xbe, 0x0d, 0x9c, 0x44, 0xbe,
  0x72, 0x8f, 0x09, 0x3e, 0x2f, 0xd6, 0x78, 0xbe, 0x50, 0x9d, 0xae, 0xbc,
  0xa9, 0x81, 0x7e, 0xbe, 0xfc, 0x3e, 0x48, 0x3e, 0xc7, 0x8a, 0xa4, 0xbe,
  0xcc, 0xa0, 0x92, 0xbe, 0x57, 0x7e, 0x78, 0xbd, 0x95, 0x4d, 0x9d, 0xbc,
  0x4c, 0xbc, 0x19, 0xbe, 0x87, 0xe9, 0x30, 0xbd, 0x9c, 0xbe, 0xb9, 0xbd,
  0xbb, 0xef, 0xf6, 0xbd, 0x49, 0x1a, 0x31, 0xbe, 0x70, 0xb4, 0x65, 0xbe,
  0xee, 0x9a, 0xe8, 0xbd, 0xa4, 0x34, 0x2f, 0xbe, 0x29, 0xa7, 0x4b, 0xbe,
  0x7e, 0xd8, 0x6c, 0xbe, 0x10, 0xcf, 0x0f, 0x3c, 0xc2, 0xe5, 0x55, 0xbe,
  0x42, 0xf4, 0x66, 0xbd, 0xf5, 0x0a, 0x5c, 0xbe, 0x21, 0x24, 0x26, 0xbe,
  0x1e, 0x6a, 0xc6, 0x3c, 0xfa, 0x12, 0xea, 0xbd, 0xd3, 0x5b, 0x55, 0xbe,
  0x67, 0xa0, 0x3a, 0xbd, 0x25, 0x1b, 0xea, 0x3c, 0xa9, 0xed, 0x99, 0xbe,
  0x8d, 0xd1, 0x15, 0xbe, 0x21, 0x36, 0x8e, 0xbe, 0xe2, 0xe2, 0xb7, 0x3c,
  0xa7, 0x83, 0x16, 0x3e, 0xe7, 0x5e, 0x9f, 0xbe, 0x9d, 0x78, 0x25, 0xbe,
  0xa3, 0x07, 0x46, 0x3d, 0x30, 0x35, 0x6d, 0xbe, 0x46, 0x7c, 0xb1, 0x3d,
  0xa5, 0x92, 0x9e, 0xbd, 0x5c, 0x57, 0x5a, 0x3d, 0xf1, 0xa1, 0x77, 0xbe,
  0xbe, 0xfe, 0x23, 0xbe, 0x9a, 0x16, 0xe6, 0x3a, 0x6a, 0xdb, 0xb9, 0xbd,
  0x04, 0x6e, 0x95, 0xbe, 0x68, 0x68, 0x13, 0xbe, 0x13, 0x2b, 0x9e, 0xbe,
  0xce, 0x4f, 0x83, 0x3c, 0xee, 0xdb, 0xef, 0xbd, 0x6f, 0x82, 0x51, 0xbe,
  0xa5, 0x8f, 0x1b, 0x3e, 0x4a, 0x44, 0xc4, 0xbd, 0x0c, 0x3b, 0x4d, 0xbe,
  0x34, 0xe7, 0x97, 0xbd, 0x3a, 0x86, 0x91, 0xbd, 0x19, 0xba, 0x75, 0xbe,
  0xc7, 0xbc, 0x74, 0x3d, 0x26, 0x75, 0xb1, 0xbe, 0x62, 0x41, 0x7f, 0xbe,
  0x3e, 0xbe, 0xf1, 0xbd, 0xd5, 0xe9, 0x78, 0x3d, 0x8b, 0xc1, 0x41, 0xbe,
  0x75, 0xfe, 0x03, 0xbe, 0xe9, 0x08, 0x16, 0xbe, 0x2c, 0xb1, 0x6c, 0xbd,
  0x8e, 0x7b, 0xfc, 0x3d, 0x45, 0x03, 0xfc, 0xbd, 0x25, 0x3e, 0x7a, 0x3d,
  0xf7, 0x7a, 0x1a, 0xbd, 0x0f, 0x50, 0x2c, 0xbe, 0xe1, 0xc7, 0x9c, 0xbc,
  0x3a, 0xaa, 0xba, 0x3d, 0x05, 0xf0, 0xc2, 0x3d, 0x38, 0x3e, 0xf9, 0xbe,
  0x68, 0xe0, 0x2d, 0xbe, 0x33, 0x36, 0x21, 0xbe, 0x63, 0xa5, 0x0d, 0x3e,
  0xa0, 0x51, 0x4f, 0x3e, 0x5a, 0x95, 0x25, 0x3d, 0xf8, 0xf8, 0x24, 0x3e,
  0x37, 0xa6, 0xde, 0x3c, 0xf7, 0xf8, 0x11, 0xbd, 0x78, 0x71, 0x0b, 0xbd,
  0xfe, 0x5a, 0x85, 0xbc, 0x04, 0x0e, 0x61, 0x3e, 0x9d, 0x93, 0x41, 0xbc,
  0x03, 0xd7, 0x9c, 0xbd, 0x2c, 0x8f, 0x7a, 0x3d, 0x89, 0x5a, 0x52, 0x3e,
  0xed, 0x0e, 0xa7, 0xbd, 0xd2, 0x0d, 0xc9, 0x3d, 0x0e, 0xad, 0x22, 0x3d,
  0xf1, 0x3d, 0x14, 0x3e, 0x2b, 0x6d, 0xef, 0x3c, 0x13, 0x61, 0xab, 0x3d,
  0x79, 0xe7, 0x39, 0x3d, 0xfb, 0xae, 0x8b, 0xbd, 0x5a, 0xcd, 0x98, 0x3d,
  0x46, 0xff, 0x10, 0x3e, 0x19, 0xb7, 0x07, 0x3e, 0x53, 0x25, 0xf6, 0x3d,
  0x84, 0x73, 0x7e, 0xbd, 0xaa, 0x07, 0x86, 0x3d, 0xf9, 0x97, 0x77, 0x3c,
  0xc7, 0xa7, 0xff, 0x3d, 0xf6, 0x81, 0xb6, 0x3e, 0x0b, 0x3e, 0x67, 0x3d,
  0x84, 0x52, 0xa3, 0xbd, 0x42, 0x65, 0x96, 0x3e, 0x0e, 0x85, 0x36, 0x3e,
  0x39, 0x2b, 0x7a, 0x3d, 0x94, 0x18, 0xa3, 0xbb, 0xb0, 0x24, 0xa5, 0x3e,
  0x2b, 0xcf, 0x20, 0x3d, 0xe2, 0xa3, 0x07, 0xbe, 0x5b, 0x98, 0xc8, 0x3e,
  0x91, 0x3e, 0x1d, 0x3e, 0xf7, 0x35, 0xa4, 0x3e, 0xe8, 0x8d, 0x69, 0x3c,
  0xbb, 0x9e, 0xd1, 0xbd, 0xc3, 0x89, 0x70, 0xbb, 0x2e, 0xcc, 0x96, 0x3d,
  0x80, 0xef, 0x8e, 0x3e, 0xc8, 0xf1, 0x6c, 0x3e, 0xf9, 0x4b, 0x7d, 0xbe,
  0xf9, 0x82, 0xb3, 0xbe, 0x97, 0xdd, 0x44, 0xbe, 0xb1, 0xfc, 0xfd, 0x3d,
  0xee, 0x46, 0x3a, 0x3d, 0xab, 0x05, 0x2d, 0xbd, 0x68, 0x16, 0x01, 0xbf,
  0x96, 0xa1, 0x36, 0xbd, 0xab, 0x05, 0x75, 0xbe, 0x30, 0x62, 0x3e, 0xbe,
  0x60, 0x5e, 0xbb, 0xbd, 0x3d, 0x56, 0x01, 0xbe, 0x1c, 0xb0, 0x6f, 0x3c,
  0xfc, 0xda, 0x26, 0x3c, 0xd6, 0x15, 0x55, 0xbe, 0x02, 0xd5, 0x33, 0x3d,
  0x22, 0x69, 0x60, 0xbe, 0x91, 0x65, 0x3c, 0xbe, 0x09, 0xdc, 0x05, 0xbe,
  0x3f, 0x9a, 0xc6, 0xbd, 0xea, 0x7f, 0xb2, 0xbd, 0x8c, 0x68, 0x55, 0x3d,
  0x10, 0x44, 0xd2, 0xbe, 0x16, 0xf0, 0xc0, 0x3d, 0xa2, 0x93, 0xcd, 0xbe,
  0xf6, 0x33, 0xef, 0xbd, 0xe3, 0xe1, 0xcb, 0xbd, 0xe1, 0x94, 0x83, 0xbd,
  0xa1, 0x4a, 0x1d, 0xbe, 0xb6, 0x52, 0xbd, 0xbd, 0x6b, 0xa4, 0x06, 0xbe,
  0xc2, 0x18, 0x46, 0x3d, 0xff, 0x78, 0xbb, 0xbe, 0xce, 0xcc, 0x75, 0xbe,
  0x15, 0x8c, 0xd8, 0xbc, 0xfa, 0xd9, 0xbf, 0x3d, 0x6e, 0x8f, 0x7a, 0x3d,
  0x4e, 0x67, 0xfa, 0x3d, 0x33, 0x64, 0x78, 0xbe, 0xb1, 0x18, 0x8c, 0xbe,
  0x7f, 0x9e, 0x57, 0xbe, 0x4f, 0xa6, 0x12, 0xbe, 0xfc, 0x88, 0xf7, 0xbd,
  0x38, 0x3f, 0x81, 0xbd, 0x98, 0xd2, 0x55, 0x3d, 0x61, 0x44, 0xa0, 0xbd,
  0x0b, 0xc4, 0x89, 0xbd, 0x61, 0xa7, 0xb7, 0xbd, 0x23, 0xd4, 0x56, 0x3e,
  0x77, 0x05, 0x96, 0xbd, 0x24, 0x6d, 0x50, 0x3d, 0x43, 0x4a, 0x4f, 0x3d,
  0x4d, 0x64, 0x7c, 0xbd, 0xb3, 0xbd, 0xb4, 0x3e, 0xd4, 0x8e, 0x18, 0xbe,
  0x36, 0x5c, 0x1e, 0xbe, 0xbf, 0xcb, 0xb1, 0x3d, 0x10, 0x81, 0x52, 0x3d,
  0xd6, 0x6b, 0xb8, 0xbd, 0x0d, 0x6f, 0xb4, 0x3d, 0x56, 0xc9, 0x41, 0x3e,
  0x61, 0x11, 0x94, 0x3d, 0xe5, 0xe9, 0x12, 0x3c, 0x70, 0xca, 0x75, 0xbd,
  0xfa, 0x7e, 0xbc, 0x3e, 0x87, 0x6c, 0x18, 0x3e, 0x0e, 0x8a, 0xa0, 0xbd,
  0xd9, 0x69, 0x09, 0x3e, 0x9c, 0xe0, 0x2a, 0x3e, 0xa1, 0xb0, 0x9e, 0xbb,
  0x7d, 0xe4, 0x07, 0x3c, 0x95, 0x4e, 0x99, 0x3e, 0xce, 0xd0, 0x0d, 0x3e,
  0x53, 0x5e, 0x37, 0xbe, 0xe7, 0xf3, 0x1a, 0x3c, 0xe6, 0xd5, 0xe2, 0xbd,
  0xe9, 0xfb, 0xc5, 0xbc, 0xf7, 0x9f, 0x44, 0x3e, 0x86, 0x95, 0x4b, 0xbe,
  0x64, 0x8b, 0xc0, 0x3d, 0x07, 0xf6, 0x5a, 0xbe, 0x63, 0xa7, 0x8c, 0x3e,
  0x85, 0x95, 0x8b, 0xbc, 0xda, 0xd1, 0x83, 0x3d, 0xd3, 0x1b, 0x16, 0x3c,
  0x88, 0x81, 0xa4, 0xbd, 0x1e, 0xc5, 0xa1, 0xbe, 0x67, 0x7b, 0x90, 0x3d,
  0x9b, 0xe9, 0x91, 0xbe, 0xff, 0x02, 0xdb, 0xbd, 0x4d, 0xbb, 0xd8, 0xbc,
  0xe6, 0x87, 0xd0, 0xba, 0x0e, 0x5b, 0x86, 0x3d, 0xcc, 0xa2, 0xe3, 0xbc,
  0x42, 0xec, 0x37, 0xbe, 0xa6, 0x21, 0x2b, 0xbd, 0x56, 0x05, 0xbe, 0xbe,
  0x69, 0x96, 0xcd, 0xbe, 0xb6, 0xff, 0x16, 0xbe, 0x51, 0xa2, 0xe4, 0xbc,
  0xfd, 0x36, 0xe5, 0xbe, 0x27, 0xde, 0x7a, 0xbe, 0x1e, 0x4d, 0x71, 0xbe,
  0x23, 0xbd, 0xc1, 0xbd, 0xd1, 0xe3, 0x7b, 0xbe, 0x71, 0x55, 0xf6, 0xbd,
  0x1f, 0x1c, 0x4a, 0xbe, 0x11, 0xd5, 0xf9, 0xbd, 0x58, 0xd4, 0x89, 0xbe,
  0x96, 0x29, 0x89, 0xbe, 0x88, 0x46, 0x30, 0xbd, 0xed, 0x59, 0x5b, 0xbe,
  0x51, 0xf6, 0xf0, 0xbd, 0x55, 0x12, 0x6d, 0xbe, 0x67, 0xbb, 0x2b, 0x3e,
  0x01, 0x1d, 0x30, 0x3d, 0x51, 0xf1, 0x4e, 0x3d, 0x24, 0xf3, 0x98, 0xbc,
  0x0b, 0x5a, 0x5b, 0xbe, 0x90, 0xa3, 0x52, 0xbe, 0xda, 0x01, 0x04, 0x3d,
  0x29, 0x7e, 0x04, 0x3d, 0x43, 0x3d, 0x52, 0xbe, 0x71, 0x96, 0x3d, 0xbc,
  0x6f, 0x19, 0xaa, 0xbe, 0x0f, 0x83, 0xdf, 0x3c, 0xfa, 0xc9, 0x71, 0xbe,
  0xed, 0xee, 0x5c, 0xbd, 0x79, 0x37, 0xd7, 0xbe, 0xbe, 0xe8, 0x34, 0xbe,
  0xfa, 0x93, 0x8f, 0xbc, 0x9d, 0x45, 0xf5, 0xbd, 0xc4, 0x0c, 0x18, 0x3b,
  0x39, 0x79, 0xa5, 0xbe, 0xc2, 0xb7, 0x82, 0xbe, 0x78, 0x96, 0xdc, 0x3c,
  0x27, 0x58, 0x1e, 0xbe, 0x81, 0xab, 0xf3, 0xbc, 0x0f, 0xe4, 0x48, 0xbe,
  0x04, 0x79, 0x3f, 0x3d, 0xe5, 0x41, 0x9e, 0xbe, 0x9f, 0x60, 0x0f, 0xbe,
  0xb2, 0x75, 0x99, 0xbd, 0x80, 0x08, 0xb8, 0xbd, 0xc1, 0x36, 0x44, 0xbe,
  0xec, 0xbe, 0xd3, 0xbe, 0x92, 0x5a, 0xdd, 0xbd, 0x34, 0xb8, 0x9f, 0xbe,
  0x4f, 0xb3, 0x0c, 0xbe, 0x78, 0x4b, 0x24, 0x3e, 0x9e, 0x86, 0x6d, 0xbc,
  0x61, 0x3c, 0xee, 0xbd, 0xef, 0xe5, 0x50, 0xbe, 0x64, 0x71, 0x83, 0xbe,
  0x00, 0x8f, 0x90, 0xbd, 0x90, 0x91, 0x93, 0xbe, 0xd9, 0x15, 0xdc, 0x3d,
  0x58, 0xff, 0x63, 0xbe, 0x95, 0xd6, 0x6d, 0xbd, 0x8a, 0x51, 0x4c, 0x3d,
  0xbb, 0x57, 0xbf, 0x3e, 0x2c, 0x48, 0x03, 0x3e, 0xdc, 0x78, 0xe6, 0xbd,
  0x66, 0x26, 0x88, 0x3e, 0x1b, 0xc7, 0x4f, 0x3e, 0x6e, 0x97, 0xc4, 0x3d,
  0xe3, 0x41, 0x50, 0x3e, 0xad, 0x0d, 0x45, 0x3e, 0x4a, 0xc6, 0xe8, 0x3d,
  0x76, 0x7c, 0x3c, 0xbe, 0xa7, 0x15, 0x1b, 0xbe, 0xa3, 0xd9, 0x7b, 0xbe,
  0x49, 0xef, 0x67, 0x3e, 0x98, 0xab, 0xe3, 0xbd, 0x4a, 0x95, 0xf2, 0xbd,
  0x4d, 0x60, 0x23, 0xbe, 0xb9, 0x79, 0x2a, 0x3e, 0x37, 0x3d, 0x0b, 0x3d,
  0x83, 0xe4, 0xff, 0xba, 0x1f, 0x8e, 0x2c, 0x3e, 0xd9, 0xdf, 0x20, 0x3e,
  0x21, 0xf1, 0x9d, 0x3e, 0x45, 0x9f, 0xae, 0xbc, 0x49, 0xfe, 0x06, 0x3e,
  0x2c, 0xa3, 0x3d, 0x3c, 0xc6, 0xe7, 0xd8, 0xbd, 0xe2, 0x67, 0x73, 0xbd,
  0x24, 0x70, 0x0b, 0x3e, 0x90, 0xd4, 0x63, 0x3e, 0x2d, 0x87, 0xee, 0x3c,
  0xa7, 0x99, 0xdb, 0x3b, 0x8e, 0xac, 0x3d, 0xbe, 0x96, 0xe8, 0x2b, 0x3e,
  0x4a, 0x09, 0x6f, 0x3e, 0x13, 0x57, 0xe2, 0xbd, 0x07, 0xb5, 0x0d, 0x3e,
  0xbf, 0xdd, 0x89, 0x3d, 0x63, 0x1c, 0x24, 0x3e, 0xf9, 0x45, 0x3d, 0x3e,
  0xe2, 0xbe, 0x5e, 0xbd, 0xa6, 0x8e, 0x1d, 0xbe, 0x84, 0xf6, 0x41, 0x3e,
  0xf6, 0xd8, 0x81, 0x3d, 0x32, 0xab, 0xb7, 0x3d, 0xfa, 0xfa, 0x61, 0x3e,
  0x35, 0x30, 0x80, 0x3e, 0x17, 0xfd, 0x63, 0x3d, 0xce, 0xb8, 0x14, 0x3e,
  0xc0, 0x8b, 0xad, 0xbc, 0x67, 0x6b, 0x02, 0xbf, 0x21, 0xe8, 0x33, 0xbe,
  0x7c, 0x07, 0x2f, 0xbe, 0x0a, 0xab, 0xea, 0x3c, 0x97, 0x1d, 0xd7, 0xbe,
  0xd4, 0x05, 0x36, 0xbe, 0x4c, 0xce, 0x83, 0xbe, 0x6e, 0x8c, 0x60, 0xbd,
  0x3b, 0x20, 0x4d, 0xbe, 0xec, 0xc8, 0x12, 0xbe, 0x64, 0xbe, 0xec, 0xbd,
  0x36, 0x6f, 0xad, 0xbe, 0x1b, 0xe9, 0x72, 0xbe, 0xb7, 0x2a, 0x63, 0xbe,
  0x16, 0x63, 0xcf, 0xbe, 0xfb, 0xa9, 0x33, 0xbd, 0x7f, 0xbe, 0x9c, 0xbd,
  0xdc, 0x64, 0x02, 0xbe, 0x7d, 0x2b, 0xc4, 0xbd, 0x4f, 0xcb, 0x58, 0xbe,
  0xdc, 0xcb, 0x5b, 0xbd, 0xb6, 0xbb, 0x8f, 0xbe, 0x8b, 0x9e, 0x05, 0xbe,
  0x3a, 0xdd, 0x0d, 0x3e, 0xce, 0x12, 0x4b, 0xbe, 0xa1, 0x87, 0xc0, 0xbd,
  0xed, 0xb1, 0xa7, 0xbd, 0x2b, 0x97, 0xe3, 0xbe, 0x34, 0xba, 0x44, 0xbe,
  0xa5, 0x61, 0x83, 0xbe, 0x9f, 0xea, 0x08, 0xbe, 0x4f, 0xf6, 0x95, 0xbe,
  0x14, 0x72, 0xab, 0xbd, 0xeb, 0xd7, 0x75, 0xbc, 0xc7, 0xd3, 0x58, 0xbe,
  0x71, 0xeb, 0x99, 0xbe, 0x05, 0xdc, 0xaf, 0xbe, 0x3c, 0x65, 0x5b, 0x3d,
  0xdf, 0x3d, 0x5a, 0xbe, 0xb0, 0x44, 0x15, 0xbe, 0x69, 0xc5, 0x0d, 0xbe,
  0xa0, 0xdd, 0x2a, 0xbe, 0xdf, 0x6f, 0x02, 0xbe, 0x43, 0x08, 0x92, 0xbe,
  0x7c, 0xf7, 0x0a, 0xbe, 0xf1, 0x8d, 0xbf, 0xbe, 0xca, 0x52, 0xce, 0xbd,
  0x4f, 0x95, 0x17, 0xbe, 0x95, 0x4f, 0x79, 0xbe, 0x3b, 0xdf, 0x84, 0xbe,
  0x27, 0xd3, 0xe6, 0xbd, 0x4a, 0xac, 0x75, 0xbe, 0x11, 0xfb, 0x74, 0x3c,
  0x9c, 0xd3, 0xfe, 0xbd, 0x08, 0x57, 0x93, 0xbd, 0x80, 0x2f, 0xc7, 0xbe,
  0xc3, 0x6e, 0x3b, 0xbe, 0xcf, 0x46, 0xf0, 0xbd, 0x5f, 0x99, 0x0d, 0xbe,
  0xe6, 0xce, 0x00, 0xbd, 0xe6, 0xcd, 0xd8, 0xbe, 0x1f, 0x4f, 0x10, 0xbe,
  0x06, 0x59, 0x20, 0x3e, 0x8e, 0xc1, 0xfe, 0x3d, 0xc1, 0x94, 0xb1, 0x3c,
  0x0c, 0x77, 0x69, 0x3d, 0x07, 0xe2, 0xe8, 0x3d, 0xb9, 0x75, 0x5a, 0x3e,
  0x6a, 0x76, 0x6c, 0x3e, 0x5c, 0x0c, 0x11, 0xbe, 0x28, 0x86, 0x8f, 0x3e,
  0x24, 0x3f, 0x07, 0x3e, 0x01, 0x78, 0xec, 0xbd, 0x63, 0x70, 0x46, 0xbe,
  0x59, 0xf6, 0x16, 0xbe, 0x70, 0x02, 0x1a, 0xbd, 0x4f, 0xa8, 0x44, 0x3c,
  0xed, 0x41, 0x63, 0x3d, 0xd2, 0xcf, 0x87, 0x3c, 0x10, 0x6c, 0x65, 0x3d,
  0x0d, 0x65, 0x0e, 0x3e, 0xa6, 0x39, 0x53, 0x3e, 0x61, 0xb0, 0x1b, 0x3d,
  0xba, 0xd0, 0xf9, 0x3d, 0x43, 0xb3, 0xb0, 0x3e, 0x08, 0xc4, 0x50, 0xbd,
  0xba, 0x82, 0x61, 0x3e, 0x7c, 0xbc, 0xfa, 0xba, 0x52, 0xf1, 0xee, 0xbd,
  0xe2, 0x99, 0xbc, 0x3d, 0x21, 0x06, 0x13, 0x3e, 0x62, 0x20, 0x4c, 0x3e,
  0xc3, 0x8e, 0x10, 0xbe, 0xb5, 0x97, 0xbd, 0xbd, 0x36, 0x99, 0xdf, 0x3d,
  0xb2, 0xc1, 0x12, 0x3f, 0xb2, 0xff, 0xdd, 0x3e, 0xdd, 0xfa, 0x41, 0xbe,
  0xa5, 0x0a, 0x69, 0xbd, 0xaf, 0xc5, 0x26, 0x3e, 0x15, 0xd2, 0x9f, 0x3e,
  0x8f, 0x0a, 0xd3, 0xbc, 0xc0, 0x28, 0x93, 0x3c, 0x2d, 0x89, 0xbb, 0xbd,
  0x16, 0x71, 0x9a, 0x3e, 0x56, 0xc0, 0x2d, 0xbc, 0x4f, 0x14, 0x0e, 0x3e,
  0x95, 0xc0, 0x05, 0x3e, 0xe6, 0x22, 0x85, 0xbd, 0x17, 0x57, 0x04, 0x3d,
  0xec, 0x52, 0x72, 0x3d, 0xa1, 0x2c, 0xbc, 0x3d, 0x76, 0x56, 0x2d, 0x3d,
  0xf9, 0x25, 0x3b, 0x3e, 0xf3, 0x13, 0xf1, 0x3d, 0xc6, 0x5e, 0x55, 0x3e,
  0x78, 0xc5, 0x4f, 0x3e, 0xff, 0x67, 0xaf, 0xbe, 0xb5, 0xd0, 0xb6, 0x3e,
  0x9c, 0xe8, 0x01, 0x3e, 0xb3, 0x48, 0x84, 0xbc, 0x0d, 0xfc, 0x70, 0xbd,
  0x1d, 0x88, 0x54, 0xbe, 0x34, 0x96, 0x45, 0x3e, 0x47, 0xa7, 0xd3, 0x3c,
  0x7a, 0x86, 0x83, 0x3e, 0xfe, 0xbb, 0x06, 0x3e, 0xe4, 0x88, 0x3c, 0xbd,
  0x41, 0xeb, 0xcf, 0xbc, 0xc8, 0xcf, 0xa1, 0xbd, 0xb0, 0xf7, 0xb4, 0xbd,
  0x69, 0x25, 0xdc, 0xbd, 0xe5, 0x8a, 0xab, 0xbd, 0x8f, 0x96, 0x9f, 0xbe,
  0x78, 0x9c, 0xb2, 0x3d, 0x07, 0xbe, 0x54, 0xbd, 0x22, 0xbb, 0x94, 0x3c,
  0xb1, 0x4c, 0x9d, 0xbd, 0x60, 0x20, 0xe0, 0xbb, 0x4d, 0x92, 0xae, 0x3e,
  0x28, 0x57, 0xdc, 0xbc, 0xbc, 0x6c, 0x71, 0xbe, 0xfd, 0xea, 0x45, 0xbc,
  0x39, 0xb2, 0xf3, 0xbd, 0x43, 0x1b, 0x3e, 0x3c, 0x9a, 0xfa, 0x0a, 0xbe,
  0x78, 0x15, 0x38, 0xbe, 0xc3, 0x13, 0x4d, 0xbe, 0xbc, 0x19, 0xf5, 0xbd,
  0x6e, 0x10, 0x1b, 0xbe, 0x9f, 0xc9, 0x02, 0xbe, 0xc6, 0x69, 0xcd, 0xbd,
  0x12, 0x47, 0x7d, 0xbe, 0x10, 0xea, 0x78, 0xbe, 0xf8, 0xf7, 0x6b, 0x3c,
  0x7f, 0x25, 0x41, 0xbe, 0x95, 0x11, 0x73, 0xbd, 0xa6, 0xc4, 0x7a, 0x3d,
  0x15, 0x03, 0x33, 0x3e, 0xb6, 0x64, 0xe6, 0xbd, 0xd4, 0x59, 0xb3, 0xbe,
  0x27, 0x33, 0x76, 0xbd, 0x8f, 0x9d, 0xad, 0xbd, 0x14, 0xaf, 0x4a, 0xbe,
  0xc2, 0xd2, 0x03, 0xbe, 0xc3, 0x2a, 0x61, 0x3d, 0x52, 0x2c, 0x01, 0xbd,
  0x11, 0x85, 0x31, 0x3d, 0x2a, 0xea, 0x12, 0xbc, 0x04, 0xf2, 0xe0, 0xbd,
  0xb6, 0x63, 0x74, 0x3d, 0x7b, 0x13, 0x97, 0xbe, 0xbe, 0x43, 0x4c, 0x3e,
  0x71, 0x90, 0x48, 0xbe, 0x26, 0x39, 0x48, 0xbe, 0xfc, 0x24, 0x23, 0xbe,
  0xba, 0xf9, 0x75, 0x3d, 0x9d, 0xcb, 0x20, 0xb9, 0xf6, 0x68, 0x56, 0x3d,
  0x80, 0x37, 0x7a, 0xbe, 0xa1, 0xec, 0xcf, 0x3d, 0x06, 0x65, 0x9f, 0xbd,
  0x6d, 0x93, 0xde, 0xbd, 0x07, 0x56, 0xa0, 0xbd, 0x20, 0x9d, 0x8d, 0x3d,
  0xe7, 0xc5, 0xbd, 0xbd, 0x59, 0x65, 0xa3, 0xbc, 0x6a, 0xfe, 0x81, 0xbe,
  0x15, 0xcf, 0x98, 0x3d, 0xce, 0x5b, 0x75, 0x3c, 0xe8, 0x29, 0x6a, 0x3d,
  0x72, 0x37, 0xa9, 0xbc, 0x40, 0x38, 0xf9, 0x39, 0x2c, 0xbd, 0x89, 0xbd,
  0xa7, 0xcb, 0x2a, 0xbe, 0xc4, 0x9d, 0x8e, 0xbb, 0xbd, 0xec, 0xe3, 0x3d,
  0xf1, 0x0a, 0xf7, 0xbc, 0x0f, 0x21, 0x3e, 0xbe, 0x44, 0x64, 0x47, 0xbe,
  0xfd, 0xa0, 0x4f, 0xbd, 0x72, 0x2b, 0x22, 0xbe, 0x78, 0xde, 0x02, 0xbe,
  0xd2, 0x35, 0x88, 0xbe, 0xc8, 0xcf, 0xad, 0x3d, 0x82, 0xa7, 0xb0, 0x3d,
  0x5e, 0xd7, 0xb6, 0xbd, 0xe2, 0xc1, 0x6c, 0x3e, 0xbd, 0x83, 0x01, 0x3d,
  0xc9, 0xff, 0xb0, 0xbd, 0x85, 0xfd, 0x54, 0x3d, 0x9a, 0xd9, 0xea, 0xbd,
  0xbd, 0xb3, 0x0d, 0xbc, 0x3e, 0x4e, 0x40, 0xbb, 0xbf, 0x21, 0x39, 0xbd,
  0xc2, 0x0a, 0xc3, 0xbd, 0x7e, 0xe7, 0xb6, 0x3b, 0x3f, 0xb7, 0x45, 0xbe,
  0x3e, 0xa8, 0x06, 0xbd, 0xdc, 0x4b, 0x01, 0xbd, 0xf1, 0xec, 0xf7, 0x3d,
  0xef, 0x94, 0x47, 0xbe, 0xed, 0x83, 0xd0, 0xbc, 0x78, 0x04, 0xd8, 0x3e,
  0x46, 0xa4, 0x7f, 0xbe, 0xcc, 0xe3, 0xb3, 0xbe, 0x99, 0x59, 0xf5, 0x3d,
  0x2a, 0x49, 0x42, 0x3c, 0x4d, 0x14, 0x16, 0xbe, 0x59, 0xfc, 0xc0, 0x3e,
  0x9f, 0x97, 0x80, 0xbe, 0xa8, 0xe3, 0x44, 0xbe, 0x6a, 0x37, 0xa5, 0xbe,
  0x80, 0xc2, 0xca, 0x3b, 0x12, 0x27, 0xa1, 0xbe, 0x85, 0x81, 0x48, 0xbe,
  0xe3, 0x83, 0x9b, 0xbe, 0xc5, 0x2c, 0x8d, 0x3d, 0x77, 0x86, 0x61, 0xbe,
  0x26, 0x35, 0x9e, 0x3f, 0x5d, 0xc0, 0x2f, 0xbe, 0x47, 0x78, 0x7a, 0xbe,
  0x20, 0xc5, 0x43, 0xbe, 0x62, 0x83, 0x2a, 0x3d, 0x65, 0x82, 0x88, 0x3d,
  0xe7, 0x8b, 0x4e, 0x3f, 0x5e, 0x39, 0xb8, 0x3c, 0xd9, 0xe9, 0x54, 0xbe,
  0x68, 0xdc, 0xb3, 0x3b, 0xe3, 0xcc, 0x46, 0xbd, 0x21, 0x9e, 0x2d, 0x3e,
  0x0c, 0x28, 0x46, 0xbd, 0x10, 0x5a, 0xb4, 0xbe, 0xb1, 0x8e, 0x4c, 0xbe,
  0x40, 0x00, 0xd4, 0xbd, 0x4f, 0x8a, 0x33, 0x3f, 0x5b, 0x62, 0x7d, 0xbe,
  0xee, 0x2d, 0xbc, 0xbe, 0xbf, 0xa9, 0xa5, 0x3d, 0x96, 0x0b, 0x8d, 0xbe,
  0xe4, 0x47, 0xd8, 0x3d, 0xdf, 0xcb, 0x5e, 0x3f, 0xe1, 0xfd, 0x43, 0x3c,
  0xb3, 0x57, 0x77, 0xbe, 0x66, 0x70, 0x50, 0xbe, 0x96, 0x59, 0xa1, 0xbe,
  0x26, 0x23, 0x55, 0x3e, 0x57, 0xd6, 0x79, 0xbd, 0x14, 0x5f, 0x13, 0xbd,
  0x12, 0x84, 0x02, 0xbd, 0xce, 0xa6, 0x9e, 0xbd, 0x22, 0x72, 0x07, 0x3f,
  0x29, 0xe8, 0x1f, 0xbe, 0x07, 0x4a, 0x56, 0xbe, 0x2e, 0x74, 0x3f, 0xbe,
  0xed, 0x6a, 0xa6, 0x3b, 0x7b, 0x9c, 0x9e, 0xbe, 0xb5, 0xf0, 0x7f, 0x3f,
  0xaa, 0x4d, 0xdc, 0x3c, 0x54, 0x36, 0x04, 0x3b, 0x77, 0xfc, 0x56, 0xbe,
  0x73, 0x73, 0xab, 0xbe, 0x56, 0xb1, 0xc4, 0xbd, 0x9c, 0xae, 0x6c, 0x3d,
  0xf9, 0xf7, 0x22, 0xbe, 0x3e, 0xd6, 0x32, 0xbd, 0x63, 0x53, 0x25, 0x3d,
  0x62, 0x2d, 0x1d, 0x3e, 0xa0, 0xb1, 0x8b, 0xbd, 0x3e, 0x59, 0xbe, 0xbc,
  0xf4, 0x36, 0xae, 0xbd, 0xe3, 0x16, 0x12, 0xbe, 0x1a, 0x7a, 0xac, 0xbe,
  0xd9, 0x30, 0x04, 0x3f, 0xa8, 0xae, 0x05, 0x3b, 0x10, 0x3c, 0x09, 0x3d,
  0xf0, 0xb1, 0x6a, 0xbe, 0x13, 0x41, 0x9e, 0xbe, 0x02, 0x71, 0x55, 0xbe,
  0x02, 0xd0, 0x02, 0xbe, 0x30, 0xc5, 0x50, 0xbe, 0xd7, 0x9c, 0x0f, 0xbd,
  0x4e, 0xbd, 0x0d, 0x3e, 0x8a, 0x19, 0xc9, 0x3e, 0xea, 0x3a, 0x69, 0xbe,
  0x29, 0x90, 0xb9, 0xbe, 0xcb, 0x23, 0x3b, 0xbc, 0x49, 0xe1, 0x7d, 0xbd,
  0x8e, 0x88, 0x43, 0xbe, 0xa4, 0x8b, 0x32, 0x3f, 0x43, 0x11, 0xd3, 0xbd,
  0x58, 0xee, 0x2a, 0xbe, 0xe0, 0xa4, 0xf8, 0xbc, 0xc6, 0xcc, 0x63, 0xbe,
  0x92, 0xb7, 0x29, 0x3e, 0x43, 0x65, 0xed, 0xbb, 0xdc, 0xc0, 0x62, 0x3a,
  0x2e, 0x4a, 0xf4, 0xbd, 0x68, 0xb2, 0xbd, 0xbd, 0x8d, 0x59, 0x8c, 0x3e,
  0x24, 0xb3, 0x88, 0xbe, 0xf9, 0x52, 0x3e, 0xbe, 0x68, 0x85, 0x93, 0x3d,
  0x8d, 0xdf, 0x22, 0xbe, 0xf2, 0x22, 0x80, 0x3c, 0x3e, 0xd4, 0xf1, 0x3d,
  0x2f, 0x8b, 0xe3, 0xbd, 0x7b, 0x4f, 0x76, 0xbe, 0x13, 0x60, 0x2d, 0xbd,
  0x5b, 0xbe, 0xab, 0xbe, 0x80, 0xe4, 0x3a, 0xbe, 0x6d, 0xd6, 0xe3, 0xbd,
  0x64, 0x21, 0x4a, 0xbd, 0x06, 0xc7, 0x70, 0xbe, 0x6f, 0x93, 0x05, 0x3d,
  0xbf, 0x35, 0x6e, 0x3f, 0x32, 0x86, 0x81, 0xbe, 0x54, 0x8e, 0xcc, 0xbe,
  0x7f, 0xbe, 0x10, 0xbe, 0x3e, 0x04, 0x11, 0xbd, 0xba, 0x39, 0xcf, 0x3c,
  0x96, 0xb3, 0x5b, 0x3e, 0xfe, 0xb3, 0x43, 0xbe, 0x39, 0x17, 0x72, 0xbe,
  0x41, 0x2c, 0xd0, 0xbd, 0x1e, 0x32, 0x9f, 0xbd, 0x3f, 0xd9, 0x70, 0xbe,
  0x83, 0x44, 0x29, 0xbe, 0xfa, 0xc8, 0x9f, 0xbd, 0x78, 0x86, 0x17, 0xbd,
  0xf0, 0xca, 0x8a, 0xbd, 0xc4, 0x80, 0xb8, 0x3f, 0x1b, 0x3d, 0x9c, 0xbe,
  0x33, 0x35, 0x2f, 0xbe, 0xc5, 0x53, 0x38, 0xbd, 0xb2, 0x5f, 0xa4, 0x3d,
  0x93, 0xf2, 0x4b, 0xbc, 0xe8, 0x15, 0x9b, 0x3f, 0xe9, 0xb8, 0x8d, 0xbd,
  0x19, 0x02, 0x18, 0xbe, 0xdb, 0x96, 0x52, 0xbe, 0xb6, 0x25, 0xc4, 0xbe,
  0x3d, 0x55, 0x6e, 0xbe, 0x33, 0x49, 0x87, 0x3d, 0x50, 0x03, 0x11, 0xbe,
  0x58, 0x20, 0xfc, 0xbd, 0x4a, 0x5f, 0x43, 0xbd, 0xc3, 0xbc, 0xb9, 0x3f,
  0xfc, 0xcd, 0x87, 0xbb, 0x01, 0x78, 0xb2, 0xbe, 0x1e, 0x60, 0x59, 0xbd,
  0x97, 0xf7, 0xde, 0xbd, 0x5f, 0x4d, 0x19, 0xbe, 0x86, 0xc2, 0xaf, 0x3f,
  0xf6, 0xab, 0x95, 0xbd, 0x1c, 0xdd, 0x47, 0x3d, 0x37, 0x0a, 0x76, 0xbd,
  0xa6, 0xff, 0xf0, 0xbd, 0x89, 0xb1, 0x6f, 0xbe, 0x01, 0xa8, 0x2a, 0x3d,
  0xa3, 0x5d, 0xf6, 0x3c, 0x6e, 0x84, 0x3b, 0x3c, 0xd1, 0x9d, 0xbd, 0xbd,
  0x51, 0xa2, 0x8a, 0x3f, 0x3a, 0x03, 0xad, 0x3d, 0x99, 0x3f, 0x3e, 0xbe,
  0x43, 0x58, 0x3e, 0xbe, 0xa6, 0x0a, 0x56, 0xbe, 0xd0, 0xa7, 0x2c, 0xbe,
  0xa4, 0xeb, 0xc9, 0x3f, 0xa2, 0x4d, 0x82, 0xbe, 0x16, 0x2f, 0xe8, 0xbc,
  0xde, 0x9c, 0x41, 0xbd, 0x19, 0x12, 0x81, 0xbd, 0x36, 0x46, 0x14, 0xbe,
  0xc5, 0x87, 0x4b, 0xbe, 0x42, 0x5c, 0x9e, 0xbe, 0x14, 0xd4, 0x8c, 0x3d,
  0xff, 0x94, 0xc0, 0xbd, 0x98, 0x85, 0xae, 0x3e, 0x0c, 0xb9, 0x10, 0xbd,
  0xf1, 0xca, 0x8d, 0x3a, 0x24, 0x4b, 0x8c, 0xbd, 0xa6, 0xda, 0x8d, 0x3d,
  0x23, 0x42, 0x86, 0xbd, 0xbc, 0x84, 0xa4, 0x3e, 0xda, 0xcf, 0x9d, 0x3d,
  0xd5, 0x76, 0xa7, 0xbb, 0xed, 0xe2, 0x3a, 0xbe, 0x11, 0x70, 0xc6, 0xbe,
  0x22, 0x8b, 0x6f, 0x3d, 0xba, 0x48, 0xb8, 0x3d, 0x92, 0x4e, 0x83, 0xbe,
  0x36, 0xbd, 0x1b, 0x3c, 0x21, 0x8b, 0x32, 0xbe, 0x38, 0x52, 0xa0, 0x3e,
  0x3e, 0x60, 0x94, 0xbc, 0x73, 0x64, 0xa8, 0xbd, 0x70, 0x3d, 0x82, 0xbd,
  0xf8, 0xf8, 0xa9, 0xbc, 0x56, 0x0f, 0x91, 0xbe, 0x4f, 0x28, 0x48, 0x3f,
  0x9c, 0x5f, 0x8d, 0xbe, 0x3f, 0x9c, 0x06, 0xbe, 0x07, 0x5d, 0x85, 0xbe,
  0x2b, 0x79, 0x54, 0xbe, 0x17, 0xa1, 0xf0, 0x3d, 0x6a, 0x85, 0x89, 0xbd,
  0xdf, 0x1a, 0x51, 0xbe, 0xc1, 0x91, 0x95, 0xbc, 0x39, 0x3d, 0x96, 0x3d,
  0xcd, 0x92, 0x03, 0x3f, 0xc4, 0x99, 0x25, 0x3d, 0x8d, 0x28, 0x8f, 0xbe,
  0x7b, 0xb3, 0xa3, 0xbe, 0x03, 0xa3, 0xce, 0xbd, 0x6b, 0x8b, 0x31, 0xbd,
  0x44, 0xeb, 0x15, 0x3f, 0x1f, 0xf4, 0xf0, 0xbd, 0x56, 0xe0, 0xa9, 0xbd,
  0x35, 0x86, 0x08, 0xbe, 0x6d, 0x04, 0xcf, 0xbe, 0x11, 0x68, 0xa9, 0xbe,
  0x79, 0x53, 0x82, 0xbe, 0x23, 0x3f, 0xdf, 0xbd, 0x3a, 0x2e, 0x40, 0xbe,
  0x27, 0x07, 0x0d, 0xbe, 0x94, 0x4f, 0xa1, 0x3c, 0x53, 0x56, 0x83, 0x3d,
  0x71, 0xbc, 0xc3, 0xbd, 0x74, 0x28, 0x68, 0xbd, 0xcc, 0x09, 0x25, 0xbe,
  0x3a, 0xfb, 0x47, 0xbe, 0x7e, 0x68, 0x00, 0x3d, 0x05, 0x60, 0x98, 0x3c,
  0x56, 0x50, 0x56, 0x3c, 0x22, 0xed, 0xae, 0x3d, 0x00, 0x81, 0x63, 0xbe,
  0xa4, 0xf0, 0x07, 0xbe, 0x70, 0x00, 0x53, 0xbe, 0x6f, 0x56, 0xb1, 0xbd,
  0x6f, 0xc4, 0xb8, 0xbd, 0x0a, 0xd1, 0x00, 0x3c, 0xb8, 0xb7, 0x91, 0x3f,
  0xaf, 0x8f, 0xad, 0x3d, 0xce, 0xf7, 0x6d, 0xbd, 0x59, 0xe7, 0x5f, 0x3c,
  0xc4, 0x90, 0xa1, 0xbc, 0xf0, 0x01, 0x2a, 0xbe, 0x0b, 0x45, 0xfa, 0x3e,
  0x8d, 0x93, 0x84, 0x3d, 0x3a, 0x79, 0x11, 0xbd, 0x01, 0xab, 0x1f, 0x3d,
  0x17, 0xa7, 0x96, 0xbe, 0x24, 0xe2, 0xa4, 0x3d, 0x3f, 0x2a, 0x47, 0xbe,
  0x91, 0xc6, 0xfb, 0xbd, 0x3c, 0x10, 0x0d, 0xbe, 0xf3, 0xef, 0x63, 0xbe,
  0x57, 0x12, 0x9a, 0x3f, 0xf0, 0xb0, 0x08, 0x3c, 0x33, 0xec, 0x24, 0xbe,
  0x5f, 0xe8, 0x4e, 0xbe, 0x70, 0x49, 0x18, 0xbe, 0xa2, 0x5e, 0x81, 0xbe,
  0x98, 0xe4, 0x18, 0x3f, 0x8b, 0x21, 0x9e, 0xbd, 0xab, 0x65, 0x8e, 0xbe,
  0x04, 0xec, 0x57, 0x3d, 0xd1, 0xad, 0x87, 0xbe, 0xee, 0x89, 0x29, 0x3d,
  0xc9, 0x54, 0x8b, 0xbe, 0xef, 0x2a, 0x0d, 0xbe, 0x9b, 0x33, 0x72, 0x3d,
  0x0a, 0x30, 0x57, 0xbe, 0xcc, 0x4a, 0x66, 0x3f, 0x97, 0xa2, 0x96, 0xbd,
  0xb7, 0xc1, 0xd4, 0xbc, 0x9d, 0x32, 0x2e, 0x3e, 0xfc, 0x7e, 0x60, 0xbe,
  0x11, 0xfd, 0x32, 0xbc, 0xf2, 0x38, 0x54, 0x3f, 0x79, 0x34, 0x61, 0xbe,
  0x58, 0xfc, 0x19, 0xbe, 0x48, 0x9f, 0xad, 0x3d, 0xce, 0x3c, 0xae, 0xbe,
  0x5b, 0x1d, 0xd8, 0xbd, 0xfe, 0x33, 0x96, 0xbe, 0x57, 0x47, 0xa3, 0xbe,
  0xc8, 0x34, 0xfe, 0x3c, 0xbf, 0xb3, 0x22, 0x3e, 0x2d, 0x5a, 0x32, 0x3f,
  0xe9, 0x57, 0x28, 0x3e, 0xd3, 0x33, 0xa2, 0xbd, 0xd7, 0x18, 0xda, 0x3d,
  0x09, 0x27, 0x60, 0xbe, 0x8f, 0x70, 0x4f, 0x3d, 0x39, 0x11, 0x51, 0x3f,
  0x88, 0x5f, 0x4f, 0x3d, 0xc1, 0xde, 0x7b, 0xbe, 0x30, 0x12, 0x89, 0xbe,
  0x94, 0x98, 0x4e, 0xbe, 0x74, 0xf1, 0xba, 0x3d, 0x5a, 0xd3, 0x15, 0xbe,
  0xe6, 0xde, 0x73, 0xbe, 0x1c, 0x12, 0x8e, 0xbd, 0x62, 0x13, 0xcd, 0x3d,
  0xa0, 0x14, 0xda, 0x3e, 0x13, 0x5a, 0xa1, 0xbc, 0x36, 0x8f, 0xe2, 0xbd,
  0x49, 0x2b, 0x46, 0xbd, 0xc4, 0x0c, 0xd6, 0xbc, 0x7d, 0xa3, 0x0d, 0xbe,
  0xf9, 0xaf, 0x67, 0x3f, 0xbf, 0xa3, 0x08, 0xbd, 0x5f, 0x91, 0x70, 0xbe,
  0xcf, 0x02, 0x75, 0xbe, 0xfc, 0xa3, 0x87, 0xbe, 0x81, 0xf4, 0x0b, 0x3d,
  0xe7, 0x1b, 0xb7, 0xbd, 0x21, 0x4a, 0x28, 0x3d, 0x58, 0x53, 0xb0, 0xbd,
  0xc0, 0x6f, 0x81, 0xbd, 0xb4, 0xe4, 0xf3, 0x3e, 0x82, 0xe9, 0x15, 0xbe,
  0xdd, 0xf4, 0x36, 0xbe, 0x03, 0x76, 0x83, 0xbc, 0x50, 0x7d, 0x31, 0xbe,
  0xb2, 0xd8, 0x1b, 0xbe, 0xc7, 0xb9, 0xc8, 0x3e, 0x3b, 0x7b, 0x8c, 0xbd,
  0xac, 0x17, 0x9f, 0xbe, 0x1b, 0xa5, 0x88, 0xbe, 0xd8, 0xe0, 0x29, 0xbe,
  0xc8, 0x53, 0xad, 0x3d, 0x64, 0xb8, 0xdf, 0xbd, 0x2a, 0x8b, 0xab, 0xbc,
  0x2b, 0x05, 0x80, 0xbe, 0x0c, 0xb2, 0x5b, 0xbe, 0x90, 0xf9, 0xdf, 0x3e,
  0x74, 0x33, 0x9b, 0x3d, 0x5e, 0x04, 0xef, 0x3c, 0x2f, 0x71, 0x53, 0x3e,
  0x6d, 0xa8, 0x8f, 0x3e, 0xf4, 0x72, 0x13, 0xbd, 0xe2, 0x0e, 0xd5, 0xbe,
  0xc0, 0x0e, 0xf3, 0x3e, 0x09, 0x51, 0x70, 0x3e, 0x9b, 0x83, 0xa6, 0x3d,
  0x71, 0xeb, 0x7f, 0xbd, 0xad, 0xde, 0x3d, 0xbe, 0x01, 0xeb, 0x4b, 0x3e,
  0x2b, 0xe7, 0xb5, 0x3d, 0x9d, 0xa2, 0x85, 0x3e, 0x7b, 0x1c, 0x73, 0x3e,
  0xb4, 0x0e, 0xe5, 0xbc, 0x17, 0x7a, 0x50, 0x3e, 0x77, 0x3c, 0x75, 0xbe,
  0x82, 0xc4, 0x62, 0xbe, 0x89, 0x59, 0x7c, 0x3e, 0x61, 0xcd, 0x22, 0x3e,
  0x41, 0xec, 0x6f, 0xbe, 0x75, 0xb2, 0x1b, 0x3e, 0x08, 0x16, 0x8a, 0xbe,
  0x69, 0xc7, 0x1b, 0xbe, 0xc8, 0x6e, 0xaf, 0x3d, 0x1d, 0x56, 0xbb, 0xbd,
  0xce, 0xc3, 0x94, 0x3e, 0x89, 0xb7, 0x51, 0xbe, 0x31, 0x05, 0x2d, 0xbe,
  0xcc, 0xb9, 0x92, 0xbd, 0xb6, 0x62, 0x26, 0xbe, 0x9f, 0x0d, 0x29, 0xbe,
  0xcd, 0x07, 0x5d, 0xbe, 0xd2, 0x65, 0x1e, 0xbe, 0x32, 0xf0, 0x32, 0x3e,
  0xaa, 0x3f, 0x91, 0x3c, 0x8d, 0x09, 0xd7, 0xbd, 0x33, 0x2f, 0xb5, 0xbd,
  0x19, 0xd8, 0x12, 0xbe, 0xb3, 0xda, 0xba, 0xbe, 0x35, 0x87, 0x0d, 0xbe,
  0x27, 0x12, 0x7c, 0xbd, 0x43, 0x79, 0xdb, 0xbd, 0x56, 0xae, 0x2c, 0xbe,
  0xf6, 0x3c, 0x67, 0x3d, 0x80, 0xe3, 0x8b, 0xbb, 0xd4, 0x8a, 0x39, 0x3d,
  0xde, 0x37, 0xe1, 0xbe, 0x2a, 0x0b, 0x9e, 0xbe, 0x63, 0x21, 0xde, 0xbd,
  0x19, 0x5d, 0xcd, 0x3d, 0x3b, 0xc6, 0x89, 0xbe, 0x3d, 0xca, 0xaf, 0x3d,
  0xf6, 0xde, 0xb6, 0xbd, 0xab, 0x99, 0x4f, 0x3d, 0x27, 0x16, 0x0e, 0xbf,
  0x4b, 0x35, 0x08, 0xbe, 0xf2, 0x0a, 0x3f, 0xbe, 0x17, 0x28, 0x42, 0xbe,
  0x71, 0x32, 0x35, 0xbe, 0xca, 0x1d, 0x3c, 0xbd, 0xc5, 0xde, 0x25, 0xbd,
  0x06, 0x25, 0x0c, 0xbe, 0xd4, 0xdc, 0xb1, 0xbb, 0xbe, 0x92, 0x19, 0xbe,
  0x73, 0x2d, 0xbd, 0xbe, 0x09, 0x43, 0x89, 0xbe, 0x29, 0x13, 0x9e, 0x3c,
  0x28, 0x4a, 0x9f, 0xbd, 0xe1, 0x68, 0x65, 0xbe, 0xf8, 0x79, 0x2d, 0xbe,
  0x88, 0x2c, 0xb0, 0xbd, 0x60, 0xd6, 0x13, 0xbd, 0x33, 0x23, 0xfa, 0xbd,
  0xa0, 0x1a, 0x8a, 0xbe, 0x65, 0xb3, 0x66, 0xbe, 0xae, 0xdd, 0xbf, 0x3d,
  0xf9, 0xae, 0x4a, 0xbe, 0x5d, 0x86, 0x07, 0xbe, 0x0b, 0xe6, 0x27, 0xbd,
  0x54, 0xa5, 0x08, 0xbe, 0xb7, 0x4d, 0x98, 0xbe, 0x0d, 0x08, 0x2c, 0xbe,
  0xe5, 0x49, 0x08, 0xbd, 0x52, 0x0b, 0x05, 0xbe, 0xe1, 0x70, 0x2e, 0xbd,
  0xbe, 0x78, 0xf5, 0xbd, 0x17, 0x2a, 0x05, 0xbe, 0xde, 0xea, 0x6e, 0xbd,
  0xa8, 0x92, 0x20, 0xbe, 0xb1, 0x76, 0x8b, 0xbe, 0x5c, 0xa1, 0xe6, 0xbc,
  0x40, 0x16, 0x8c, 0xbc, 0x4e, 0x4b, 0x9b, 0x3d, 0xdf, 0x97, 0xa7, 0x3a,
  0xe8, 0x56, 0x00, 0xbc, 0x42, 0x2b, 0x12, 0x3d, 0xc9, 0x37, 0xaa, 0x3d,
  0x60, 0x44, 0x87, 0xbd, 0xa9, 0xe3, 0xf2, 0xbd, 0xd2, 0x96, 0x4b, 0xbe,
  0x64, 0xd1, 0x28, 0xbd, 0x73, 0x02, 0x55, 0xbe, 0x37, 0x51, 0x1e, 0xbd,
  0xc9, 0x07, 0xd4, 0xbd, 0xa2, 0x65, 0x2c, 0xbe, 0x86, 0xe6, 0x02, 0xbe,
  0xf1, 0x3d, 0x21, 0xbe, 0x6e, 0x52, 0xc6, 0xbd, 0x80, 0x4f, 0x0e, 0xbe,
  0x81, 0xfb, 0x03, 0x3f, 0xea, 0x38, 0xf0, 0x3e, 0xa6, 0x50, 0xe5, 0x3d,
  0x7d, 0xa2, 0x95, 0x3e, 0xe9, 0x0a, 0xa9, 0x3e, 0x14, 0xd4, 0x09, 0x3e,
  0xdb, 0x04, 0x16, 0xbe, 0x47, 0x83, 0x09, 0x3f, 0x98, 0x90, 0xe0, 0x3b,
  0xf4, 0x78, 0x38, 0x3e, 0x8a, 0x5c, 0xe7, 0x3d, 0xaf, 0xb8, 0x79, 0xbd,
  0x6f, 0xf0, 0x49, 0x3d, 0x14, 0x57, 0x4d, 0x3d, 0x08, 0x65, 0xbd, 0x3e,
  0x4d, 0xae, 0xb9, 0x3e, 0xea, 0x03, 0xd7, 0xbe, 0x4b, 0xfb, 0x6f, 0x3c,
  0x06, 0xcb, 0x3c, 0xbd, 0xff, 0x44, 0xbe, 0xbc, 0xba, 0x29, 0x5a, 0x3e,
  0x51, 0x74, 0xa3, 0x3e, 0xfa, 0x1b, 0x8d, 0xbe, 0x51, 0x34, 0xe1, 0x3c,
  0x84, 0xa5, 0xd5, 0xbb, 0x04, 0x45, 0x67, 0xbc, 0x3e, 0xed, 0x4e, 0x3c,
  0x9b, 0x46, 0x00, 0xbe, 0xf9, 0x87, 0x79, 0x3e, 0x29, 0xb1, 0xe6, 0xbd,
  0xf2, 0x9e, 0xb0, 0xbc, 0x56, 0xfc, 0x38, 0xbe, 0x51, 0xb5, 0xc5, 0x3c,
  0x39, 0x8e, 0x3b, 0x3c, 0xad, 0x33, 0x5b, 0xbe, 0x99, 0xc1, 0xc4, 0xbd,
  0x84, 0x97, 0xa9, 0xbd, 0x59, 0x85, 0x17, 0xbe, 0x58, 0xfc, 0x2b, 0xbe,
  0x5f, 0x5f, 0x58, 0x3d, 0x5f, 0xed, 0x76, 0xbe, 0xbf, 0x37, 0xa5, 0xbe,
  0x80, 0x1c, 0xab, 0xbd, 0x0b, 0xe4, 0x5e, 0x3d, 0x77, 0x5c, 0xc9, 0x3a,
  0xac, 0x5b, 0x43, 0xbe, 0x1f, 0x2f, 0x2c, 0xbe, 0x3e, 0x5c, 0x09, 0xbe,
  0xeb, 0x9a, 0x52, 0x3d, 0xab, 0x4b, 0x03, 0xbe, 0x81, 0x07, 0x2a, 0xbe,
  0x8c, 0x9a, 0xe1, 0xbc, 0x41, 0x0c, 0x13, 0xbe, 0x1c, 0x85, 0x84, 0xbd,
  0x3a, 0x53, 0x04, 0x3d, 0xe3, 0xc8, 0x39, 0xbe, 0x0b, 0xb3, 0x34, 0xbe,
  0xf1, 0xa3, 0x92, 0xbe, 0xdd, 0x10, 0xd7, 0xbd, 0x49, 0x34, 0x57, 0xbd,
  0xb0, 0x87, 0xa8, 0xbe, 0xf2, 0xe3, 0x05, 0x3e, 0x15, 0x3a, 0x5b, 0xbd,
  0xda, 0xda, 0x9c, 0xbb, 0xd4, 0x50, 0xef, 0xbe, 0xfb, 0x03, 0xbd, 0xbd,
  0x66, 0xe8, 0x0d, 0xbe, 0x2a, 0xb1, 0x9e, 0xbe, 0xd0, 0x6f, 0x66, 0xbe,
  0xb2, 0xf9, 0x88, 0x3d, 0xe2, 0x09, 0x91, 0xbd, 0x29, 0x2f, 0x21, 0xbd,
  0x75, 0xd1, 0x43, 0x3d, 0xbe, 0xa0, 0x56, 0xbe, 0xbf, 0x24, 0x14, 0xbc,
  0xe7, 0x2c, 0x8b, 0x3d, 0x14, 0xab, 0xb2, 0xbe, 0x04, 0xb5, 0x54, 0xbd,
  0x56, 0x8a, 0x6f, 0xbd, 0x75, 0x98, 0x95, 0x3d, 0xbf, 0x54, 0xb7, 0xbd,
  0x28, 0xe9, 0x5b, 0xbe, 0x2b, 0x0e, 0xcd, 0x3d, 0xa1, 0xfc, 0x7b, 0xbe,
  0xdf, 0x9d, 0xf1, 0xbe, 0x2b, 0xe7, 0xc5, 0xbc, 0xef, 0x6e, 0xac, 0x3d,
  0xa1, 0xf4, 0xb1, 0xbd, 0x98, 0xe6, 0x55, 0x3b, 0x95, 0xb8, 0x2f, 0xbd,
  0x21, 0xde, 0x43, 0xbe, 0x60, 0x24, 0xd8, 0x3d, 0x0b, 0x9e, 0x44, 0xbe,
  0xb0, 0x1c, 0x1f, 0xbe, 0xc1, 0x17, 0x51, 0xbe, 0x45, 0xbb, 0x9f, 0xbe,
  0xdd, 0xe5, 0xab, 0xbe, 0x25, 0x8a, 0xb2, 0x3b, 0xb1, 0x2d, 0x2a, 0xbd,
  0xe9, 0x08, 0x4b, 0x3e, 0xbc, 0x96, 0xa7, 0x3d, 0x14, 0x2d, 0x21, 0x3d,
  0x03, 0xfb, 0x7e, 0xbe, 0x7b, 0x75, 0xa5, 0x3c, 0x81, 0x2e, 0x22, 0xbe,
  0xb9, 0x11, 0x1a, 0xbe, 0x53, 0xb5, 0xde, 0xbd, 0x00, 0x3a, 0x32, 0xbe,
  0x93, 0x6e, 0x1c, 0xbc, 0x7e, 0xb9, 0x91, 0xbd, 0x26, 0x18, 0xbb, 0x3d,
  0x2d, 0xb4, 0x81, 0xbe, 0xe5, 0xae, 0xd3, 0x3d, 0x84, 0x23, 0x80, 0xbe,
  0x06, 0x33, 0xb4, 0xbd, 0xd4, 0xac, 0x94, 0xbe, 0x64, 0x01, 0xc6, 0xbe,
  0xd4, 0xa5, 0x0f, 0xbe, 0xfa, 0x88, 0x09, 0x3f, 0x73, 0xcf, 0xa3, 0xbe,
  0xad, 0x36, 0x2f, 0xbe, 0x92, 0x33, 0xe4, 0xbd, 0x5a, 0x2c, 0xaa, 0x3d,
  0xff, 0x88, 0xbb, 0x3e, 0xc8, 0x3d, 0x9a, 0x3e, 0x9f, 0x76, 0xc1, 0xbe,
  0x18, 0xf7, 0x3e, 0xbd, 0xeb, 0x64, 0x82, 0xbe, 0xc5, 0xcc, 0xdb, 0x3e,
  0x93, 0x4b, 0x38, 0x3e, 0x9c, 0xc5, 0xd0, 0x3c, 0x32, 0x30, 0x48, 0xbe,
  0xce, 0x65, 0x1b, 0x3e, 0xfa, 0x7f, 0x18, 0x3e, 0x0c, 0xdd, 0xa2, 0xbe,
  0xef, 0xf2, 0x5a, 0x3c, 0xb9, 0xca, 0x73, 0x3e, 0xf3, 0x81, 0x5c, 0x3e,
  0x37, 0x60, 0xc1, 0x3c, 0x44, 0x2e, 0xc2, 0xbd, 0xd9, 0x5e, 0x84, 0x3d,
  0x15, 0x54, 0x07, 0xbe, 0x67, 0xf2, 0x91, 0xbd, 0x8d, 0x9a, 0x6f, 0xbc,
  0xab, 0x4a, 0x8e, 0xbc, 0x29, 0xf4, 0xe8, 0x3e, 0xd8, 0xa3, 0xf7, 0x3c,
  0x3c, 0x96, 0xb1, 0x3e, 0x68, 0x43, 0x91, 0x3e, 0x39, 0x2f, 0xd8, 0x3e,
  0x37, 0x64, 0x80, 0xbd, 0x9c, 0x20, 0x00, 0x3f, 0x51, 0x02, 0x0b, 0x3e,
  0x8b, 0xdb, 0xf6, 0xbc, 0xa7, 0x05, 0xbd, 0x3d, 0x63, 0xc7, 0xbd, 0x3e,
  0xd0, 0x99, 0x84, 0x3e, 0x2e, 0x2a, 0x2f, 0x3e, 0x22, 0xd9, 0x88, 0x3e,
  0x65, 0x03, 0x09, 0x3f, 0x57, 0x62, 0x34, 0x3e, 0x20, 0x99, 0x62, 0x3f,
  0xac, 0xb2, 0x9a, 0x3e, 0xeb, 0x1d, 0x85, 0x3e, 0x24, 0x60, 0x72, 0x3e,
  0x5d, 0xaf, 0x8f, 0x3e, 0xf3, 0x9e, 0x03, 0xbe, 0xb1, 0x9e, 0xd0, 0x3e,
  0xdb, 0x2c, 0xb4, 0x3e, 0x1a, 0x4b, 0x4d, 0x3c, 0xb9, 0xe2, 0x9d, 0x3d,
  0xbe, 0x6c, 0xc0, 0x3d, 0xa9, 0xdc, 0xca, 0xbb, 0xa3, 0x33, 0xad, 0xbd,
  0x60, 0x68, 0x08, 0xbc, 0xee, 0xea, 0x08, 0x3e, 0x79, 0xb3, 0x90, 0xbe,
  0x2b, 0xd5, 0x17, 0x3e, 0x50, 0x6f, 0x80, 0xbc, 0xbf, 0x12, 0xb9, 0xbd,
  0x30, 0xd5, 0xe9, 0xbd, 0xd7, 0x86, 0x94, 0x3d, 0xb2, 0xd1, 0xc5, 0xbe,
  0x8f, 0xc1, 0x95, 0xbd, 0xe7, 0xea, 0x13, 0x3d, 0x92, 0x30, 0x80, 0x3d,
  0xe3, 0x9a, 0xe5, 0x3d, 0xb6, 0xd1, 0xce, 0x3a, 0xe3, 0x4c, 0xf5, 0xbb,
  0x51, 0x84, 0xc2, 0x3b, 0xb5, 0x03, 0x86, 0x3e, 0x12, 0xd5, 0x4c, 0x3e,
  0x71, 0x50, 0x4e, 0x3e, 0x38, 0x56, 0xa8, 0x3c, 0x0e, 0xf6, 0xfc, 0xbd,
  0x5e, 0xa1, 0xe2, 0xbc, 0x45, 0xf2, 0x73, 0x3d, 0xac, 0xa9, 0xe1, 0x3c,
  0xaf, 0xb5, 0xd7, 0xbd, 0x20, 0xe2, 0x9a, 0xbd, 0x60, 0x77, 0xb5, 0xbc,
  0x37, 0x33, 0x11, 0xbe, 0x5b, 0xb7, 0x3c, 0xbe, 0xd3, 0xab, 0xc1, 0x3d,
  0x93, 0x19, 0x90, 0xbe, 0x0e, 0x65, 0x1c, 0xbe, 0x47, 0x09, 0x00, 0xbd,
  0xec, 0x06, 0x44, 0xbe, 0xc6, 0x3c, 0x52, 0x3d, 0x69, 0x6e, 0xe7, 0xbe,
  0xce, 0xfc, 0xc9, 0x3d, 0xd1, 0x1c, 0x84, 0x3d, 0xd8, 0x7c, 0x78, 0xbc,
  0xe6, 0xb6, 0xe8, 0xbc, 0x9a, 0xb2, 0x09, 0xbe, 0xcc, 0x1e, 0x0c, 0x3c,
  0x6a, 0xa0, 0x47, 0xbc, 0xed, 0xb6, 0x8e, 0xbe, 0x4e, 0x8c, 0xca, 0xbd,
  0x5e, 0xd3, 0x4c, 0x3e, 0x0b, 0xa1, 0x3b, 0x3d, 0xd4, 0xdb, 0x6a, 0xbe,
  0x3c, 0xea, 0x8a, 0xbd, 0x97, 0xe7, 0x97, 0x3d, 0x4a, 0xfe, 0xff, 0xff,
  0x10, 0x00, 0x00, 0x00, 0x05, 0x00, 0x00, 0x00, 0x14, 0x00, 0x00, 0x00,
  0x2c, 0x00, 0x00, 0x00, 0x02, 0x00, 0x00, 0x00, 0x10, 0x00, 0x00, 0x00,
  0x70, 0x00, 0x00, 0x00, 0x17, 0x00, 0x00, 0x00, 0x73, 0x65, 0x71, 0x75,
  0x65, 0x6e, 0x74, 0x69, 0x61, 0x6c, 0x2f, 0x64, 0x65, 0x6e, 0x73, 0x65,
  0x2f, 0x4d, 0x61, 0x74, 0x4d, 0x75, 0x6c, 0x00, 0x38, 0xfe, 0xff, 0xff,
  0x2e, 0xff, 0xff, 0xff, 0x04, 0x00, 0x00, 0x00, 0x08, 0x00, 0x00, 0x00,
  0xff, 0xff, 0xff, 0xff, 0x70, 0x00, 0x00, 0x00, 0x00, 0x00, 0x0e, 0x00,
  0x18, 0x00, 0x08, 0x00, 0x07, 0x00, 0x0c, 0x00, 0x10, 0x00, 0x14, 0x00,
  0x0e, 0x00, 0x00, 0x00, 0x00, 0x00, 0x00, 0x02, 0x10, 0x00, 0x00, 0x00,
  0x04, 0x00, 0x00, 0x00, 0x10, 0x00, 0x00, 0x00, 0x2c, 0x00, 0x00, 0x00,
  0x01, 0x00, 0x00, 0x00, 0x02, 0x00, 0x00, 0x00, 0x18, 0x00, 0x00, 0x00,
  0x73, 0x65, 0x71, 0x75, 0x65, 0x6e, 0x74, 0x69, 0x61, 0x6c, 0x2f, 0x66,
  0x6c, 0x61, 0x74, 0x74, 0x65, 0x6e, 0x2f, 0x43, 0x6f, 0x6e, 0x73, 0x74,
  0x00, 0x00, 0x00, 0x00, 0xa0, 0xfe, 0xff, 0xff, 0x96, 0xff, 0xff, 0xff,
  0x04, 0x00, 0x00, 0x00, 0x0c, 0x00, 0x00, 0x00, 0x23, 0xc1, 0x67, 0xc0,
  0xa0, 0xd6, 0x3d, 0xc0, 0x19, 0x25, 0x33, 0x40, 0x0a, 0xff, 0xff, 0xff,
  0x10, 0x00, 0x00, 0x00, 0x03, 0x00, 0x00, 0x00, 0x10, 0x00, 0x00, 0x00,
  0x3c, 0x00, 0x00, 0x00, 0x01, 0x00, 0x00, 0x00, 0x03, 0x00, 0x00, 0x00,
  0x29, 0x00, 0x00, 0x00, 0x73, 0x65, 0x71, 0x75, 0x65, 0x6e, 0x74, 0x69,
  0x61, 0x6c, 0x2f, 0x64, 0x65, 0x6e, 0x73, 0x65, 0x5f, 0x31, 0x2f, 0x42,
  0x69, 0x61, 0x73, 0x41, 0x64, 0x64, 0x2f, 0x52, 0x65, 0x61, 0x64, 0x56,
  0x61, 0x72, 0x69, 0x61, 0x62, 0x6c, 0x65, 0x4f, 0x70, 0x00, 0x00, 0x00,
  0x60, 0xff, 0xff, 0xff, 0x00, 0x00, 0x06, 0x00, 0x08, 0x00, 0x04, 0x00,
  0x06, 0x00, 0x00, 0x00, 0x04, 0x00, 0x00, 0x00, 0x40, 0x00, 0x00, 0x00,
  0x29, 0x28, 0x75, 0x3f, 0x5b, 0xcf, 0x22, 0xbe, 0x93, 0x52, 0x7b, 0x3f,
  0xe6, 0x22, 0x3a, 0xbe, 0xfa, 0x3a, 0x08, 0xbf, 0xe2, 0x26, 0xc0, 0xbe,
  0xa9, 0xe3, 0x2b, 0xbf, 0xfe, 0x6d, 0x17, 0xbf, 0x6f, 0xa7, 0x11, 0xbf,
  0xd1, 0xc0, 0xce, 0xbe, 0xa4, 0xc2, 0x29, 0x3f, 0x5d, 0xa9, 0x8b, 0x3f,
  0x49, 0xcc, 0xb0, 0x3e, 0xb9, 0xee, 0x3f, 0xbf, 0x12, 0xfc, 0x88, 0xbf,
  0x6f, 0xb0, 0xab, 0x3e, 0xae, 0xff, 0xff, 0xff, 0x10, 0x00, 0x00, 0x00,
  0x02, 0x00, 0x00, 0x00, 0x10, 0x00, 0x00, 0x00, 0x3c, 0x00, 0x00, 0x00,
  0x01, 0x00, 0x00, 0x00, 0x10, 0x00, 0x00, 0x00, 0x27, 0x00, 0x00, 0x00,
  0x73, 0x65, 0x71, 0x75, 0x65, 0x6e, 0x74, 0x69, 0x61, 0x6c, 0x2f, 0x64,
  0x65, 0x6e, 0x73, 0x65, 0x2f, 0x42, 0x69, 0x61, 0x73, 0x41, 0x64, 0x64,
  0x2f, 0x52, 0x65, 0x61, 0x64, 0x56, 0x61, 0x72, 0x69, 0x61, 0x62, 0x6c,
  0x65, 0x4f, 0x70, 0x00, 0x04, 0x00, 0x06, 0x00, 0x04, 0x00, 0x00, 0x00,
  0x00, 0x00, 0x0e, 0x00, 0x14, 0x00, 0x04, 0x00, 0x00, 0x00, 0x08, 0x00,
  0x0c, 0x00, 0x10, 0x00, 0x0e, 0x00, 0x00, 0x00, 0x10, 0x00, 0x00, 0x00,
  0x01, 0x00, 0x00, 0x00, 0x1c, 0x00, 0x00, 0x00, 0x2c, 0x00, 0x00, 0x00,
  0x04, 0x00, 0x00, 0x00, 0x01, 0x00, 0x00, 0x00, 0x40, 0x00, 0x00, 0x00,
  0x03, 0x00, 0x00, 0x00, 0x01, 0x00, 0x00, 0x00, 0x0c, 0x00, 0x00, 0x00,
  0x63, 0x6f, 0x6e, 0x76, 0x32, 0x64, 0x5f, 0x69, 0x6e, 0x70, 0x75, 0x74,
  0x00, 0x00, 0x00, 0x00, 0xfc, 0xff, 0xff, 0xff, 0x04, 0x00, 0x04, 0x00,
  0x04, 0x00, 0x00, 0x00
};

unsigned int model_tflite_len = 12316;// Fill the int in `src/model.cc` here